<unk>	0
<s>	0
</s>	0
▁	-2.25871
▁the	-2.98855
▁N	-3.49892
▁of	-3.78526
▁to	-3.79525
▁a	-3.80103
s	-3.98476
▁in	-4.07353
▁and	-4.12025
.	-4.1618
▁'	-4.58599
▁for	-4.78031
▁that	-4.79092
ing	-4.93362
$	-4.9338
▁is	-4.99359
▁it	-5.15753
▁said	-5.1841
-	-5.19258
▁on	-5.25223
▁be	-5.30554
ed	-5.37089
▁by	-5.3885
▁with	-5.39211
▁at	-5.41215
▁from	-5.42745
t	-5.43983
▁million	-5.44179
▁as	-5.47336
▁mr	-5.47844
▁was	-5.57581
▁are	-5.62126
y	-5.63216
'	-5.63988
▁n	-5.65845
▁its	-5.65897
▁he	-5.68817
▁but	-5.71205
▁has	-5.71997
▁an	-5.73669
▁will	-5.79022
▁have	-5.80113
ly	-5.85388
▁new	-5.89729
▁company	-5.99263
▁or	-5.99843
▁year	-6.01831
▁this	-6.08978
▁which	-6.11844
▁would	-6.13849
▁u	-6.17732
▁about	-6.18307
d	-6.20625
▁more	-6.21529
▁says	-6.24823
▁market	-6.24913
▁were	-6.28341
▁billion	-6.32766
▁one	-6.3384
▁up	-6.35123
▁who	-6.35386
▁had	-6.36544
▁his	-6.36802
▁their	-6.36903
▁stock	-6.40115
▁some	-6.40471
▁than	-6.43012
▁been	-6.47035
lso	-6.51444
▁other	-6.5184
▁share	-6.55648
▁not	-6.56085
▁corp	-6.5885
▁we	-6.6179
▁inc	-6.66356
▁i	-6.67307
&	-6.68616
▁when	-6.72562
▁president	-6.72982
▁two	-6.73002
▁last	-6.73169
▁if	-6.73385
▁co	-6.73885
▁all	-6.77868
▁shares	-6.78052
▁first	-6.78183
cause	-6.79426
▁years	-6.79898
▁after	-6.81941
▁trading	-6.83701
▁could	-6.8532
▁sales	-6.85489
▁over	-6.90399
▁do	-6.91377
▁there	-6.92585
▁out	-6.9438
▁business	-6.94568
▁can	-6.94989
▁most	-6.95304
▁may	-6.95814
▁only	-6.9653
▁such	-6.97073
▁york	-6.97968
▁no	-6.98248
▁into	-7.03039
▁so	-7.03436
▁group	-7.04157
▁many	-7.06284
▁bank	-7.08001
▁government	-7.08004
▁federal	-7.09968
▁now	-7.11181
▁companies	-7.12023
n	-7.1207
e	-7.12682
al	-7.13086
▁quarter	-7.13087
▁time	-7.13555
▁cents	-7.17392
▁any	-7.18386
▁exchange	-7.1875
se	-7.19152
▁what	-7.19667
▁people	-7.2016
▁you	-7.20661
▁under	-7.20918
▁even	-7.22126
▁price	-7.22244
▁down	-7.22296
▁prices	-7.23899
▁say	-7.24122
st	-7.25636
▁investors	-7.25882
▁buy	-7.2629
▁rose	-7.27
▁unit	-7.27164
▁while	-7.28242
▁week	-7.29476
▁interest	-7.29643
▁three	-7.29982
▁much	-7.30105
a	-7.30441
▁yesterday	-7.30679
▁securities	-7.31796
▁again	-7.3283
▁big	-7.32922
▁state	-7.33105
▁months	-7.33614
▁bonds	-7.36033
▁next	-7.36362
▁them	-7.38101
▁through	-7.3846
▁make	-7.39354
▁third	-7.3978
▁financial	-7.40509
▁investment	-7.40775
▁net	-7.4135
▁earnings	-7.4179
▁major	-7.4179
▁american	-7.41918
▁earlier	-7.43265
▁chairman	-7.43526
▁she	-7.44111
▁program	-7.44211
out	-7.44447
▁did	-7.44837
▁get	-7.45564
▁board	-7.46115
▁industry	-7.46568
▁chief	-7.47174
▁still	-7.47523
▁executive	-7.47551
▁just	-7.48065
▁money	-7.48705
▁back	-7.48925
▁high	-7.49069
▁rate	-7.49716
▁since	-7.50025
▁before	-7.51736
▁house	-7.5209
▁like	-7.521
▁stocks	-7.52361
▁capital	-7.53091
▁made	-7.531
▁national	-7.53877
▁officials	-7.54363
▁part	-7.54598
▁b	-7.54743
ng	-7.57704
re	-7.57737
▁analysts	-7.58572
▁profit	-7.5882
▁expected	-7.59116
▁month	-7.59117
▁well	-7.59623
▁plan	-7.59847
▁off	-7.60496
▁sell	-7.60746
▁japanese	-7.62189
▁days	-7.62189
▁does	-7.62713
▁rates	-7.63077
able	-7.63511
▁long	-7.6365
er	-7.64801
▁world	-7.64865
▁al	-7.65528
▁between	-7.65657
▁firm	-7.6605
▁both	-7.66165
▁accord	-7.66978
▁income	-7.66999
▁th	-7.67636
▁issue	-7.68036
▁recent	-7.68626
▁revenue	-7.69285
▁average	-7.69397
▁general	-7.70507
▁congress	-7.7135
▁her	-7.71358
▁own	-7.71753
▁products	-7.72583
▁tax	-7.73725
▁funds	-7.73844
▁should	-7.73846
▁international	-7.74072
▁court	-7.74155
▁computer	-7.755
▁japan	-7.75989
▁includ	-7.7603
▁offer	-7.7604
▁ago	-7.7615
▁debt	-7.76184
m	-7.76378
▁another	-7.76478
▁fell	-7.76649
▁take	-7.76787
▁higher	-7.77391
▁reported	-7.7788
▁markets	-7.7839
▁total	-7.78531
▁index	-7.79528
▁trade	-7.80334
▁each	-7.804
▁work	-7.80897
▁yield	-7.81227
▁few	-7.8195
▁lower	-7.82253
▁foreign	-7.82295
▁real	-7.83115
▁way	-7.83289
▁pay	-7.83296
▁department	-7.83509
▁economic	-7.83968
▁past	-7.84003
es	-7.8426
▁operations	-7.84316
▁five	-7.84436
▁being	-7.84515
▁sale	-7.84567
ose	-7.85019
▁report	-7.8569
▁end	-7.85693
▁however	-7.85859
▁how	-7.86146
▁amo	-7.8621
▁our	-7.86959
quarter	-7.87104
vice	-7.87364
year	-7.87623
▁law	-7.87926
▁common	-7.87956
▁put	-7.88076
▁large	-7.88112
▁less	-7.88243
ve	-7.88541
▁go	-7.8868
▁increase	-7.88715
very	-7.8874
▁closed	-7.88943
▁plans	-7.88955
▁dur	-7.89088
▁sold	-7.89366
▁insurance	-7.89737
▁growth	-7.8978
▁m	-7.90047
▁un	-7.90172
▁help	-7.90733
▁several	-7.91294
▁san	-7.91374
▁bill	-7.91733
▁second	-7.91851
▁good	-7.92285
▁where	-7.9266
▁bid	-7.93229
▁d	-7.93279
▁yen	-7.9398
▁bush	-7.941
▁issues	-7.94277
▁current	-7.94957
▁banks	-7.94982
▁loss	-7.95446
▁public	-7.9554
▁due	-7.95787
▁fund	-7.95796
▁think	-7.95998
▁small	-7.96411
▁day	-7.96658
▁power	-7.9681
▁management	-7.96817
▁concern	-7.9759
▁oil	-7.97659
▁far	-7.97662
▁bond	-7.97967
▁cash	-7.98119
an	-7.98264
▁used	-7.98706
▁system	-7.98751
▁director	-7.99057
▁might	-7.99494
▁t	-7.99628
▁cost	-7.99676
▁friday	-7.99769
▁treasury	-7.998
on	-7.99814
▁home	-8.00207
▁costs	-8.00403
▁office	-8.00892
ther	-8.0099
▁traders	-8.01281
▁six	-8.01715
▁contract	-8.0186
▁south	-8.02507
▁value	-8.02532
▁early	-8.02721
▁added	-8.0274
▁futures	-8.02998
▁four	-8.03132
▁california	-8.03156
▁city	-8.03244
▁officer	-8.03498
▁number	-8.03949
▁show	-8.04198
▁see	-8.04369
▁former	-8.04738
▁use	-8.04896
▁late	-8.04993
▁already	-8.05469
▁least	-8.05787
▁operating	-8.0609
▁assets	-8.06306
▁him	-8.06346
▁spokesman	-8.06353
▁case	-8.06372
▁agency	-8.06643
▁british	-8.06938
▁credit	-8.07526
▁look	-8.07851
▁close	-8.08059
▁september	-8.08441
▁union	-8.08529
▁stake	-8.08537
▁result	-8.08689
▁same	-8.08812
▁oct	-8.09034
▁support	-8.09053
▁street	-8.09144
▁research	-8.09893
▁us	-8.10137
▁p	-8.10452
▁include	-8.10468
▁dollar	-8.10556
term	-8.11262
▁move	-8.11599
▁c	-8.11917
▁wall	-8.1199
▁little	-8.12118
▁agreement	-8.12205
▁going	-8.12342
▁today	-8.12621
▁based	-8.12689
▁west	-8.12964
▁services	-8.13062
▁try	-8.13236
▁ended	-8.13303
▁certain	-8.13757
▁period	-8.1391
▁service	-8.14051
▁too	-8.14459
though	-8.14715
▁give	-8.14854
▁come	-8.14999
▁maker	-8.15943
▁annual	-8.16406
l	-8.16553
c	-8.17189
▁want	-8.17354
o	-8.17916
▁control	-8.18089
▁administration	-8.18277
▁news	-8.18313
▁agreed	-8.18329
▁then	-8.18727
▁point	-8.19116
corporate	-8.19221
▁cut	-8.19337
▁results	-8.19646
▁offering	-8.19943
p	-8.19987
▁economy	-8.20271
▁production	-8.20332
▁called	-8.20653
▁health	-8.20959
▁strong	-8.21054
▁though	-8.21322
▁analyst	-8.2144
r	-8.21505
▁country	-8.21532
▁here	-8.21555
▁junk	-8.21619
▁problems	-8.21625
▁air	-8.22443
▁political	-8.23039
▁loans	-8.23644
▁committee	-8.237
▁buying	-8.23754
▁half	-8.23797
▁increased	-8.24776
▁policy	-8.25136
▁likely	-8.2528
▁recently	-8.25539
▁provide	-8.25615
▁further	-8.25856
▁industrial	-8.26211
▁notes	-8.26239
▁line	-8.26411
▁firms	-8.26556
▁continue	-8.26599
▁short	-8.26636
▁soviet	-8.26764
▁right	-8.26826
▁become	-8.26854
▁volume	-8.27295
▁open	-8.27326
▁life	-8.27689
▁monday	-8.28029
▁set	-8.28135
▁yet	-8.285
▁around	-8.2863
▁london	-8.28763
▁old	-8.29556
▁plant	-8.29598
▁losses	-8.29628
▁paper	-8.29951
▁john	-8.3014
▁judge	-8.30616
▁august	-8.31011
▁s	-8.31343
▁ltd	-8.31378
▁wo	-8.31614
▁points	-8.31646
▁official	-8.32129
▁demand	-8.32438
▁selling	-8.32525
▁gain	-8.3255
▁takeover	-8.32637
▁earthquake	-8.33088
▁nov	-8.33352
▁expects	-8.34394
▁announced	-8.34543
▁de	-8.34696
▁declined	-8.34706
▁my	-8.34722
▁white	-8.35516
in	-8.35671
▁ual	-8.36033
▁record	-8.36044
▁largest	-8.36144
▁held	-8.36381
▁francisco	-8.36452
ll	-8.3658
▁change	-8.36607
the	-8.36812
ian	-8.3684
▁keep	-8.36854
▁problem	-8.36862
▁reflect	-8.37153
▁making	-8.37279
▁remain	-8.3777
▁composite	-8.38061
▁decline	-8.38417
▁priced	-8.38525
▁comment	-8.38584
▁workers	-8.38691
▁systems	-8.38779
▁businesses	-8.38826
▁fi	-8.38887
▁trust	-8.39002
▁times	-8.39379
▁development	-8.3947
▁association	-8.39653
▁senior	-8.39715
▁follow	-8.39881
▁ca	-8.40255
▁loan	-8.40537
▁car	-8.40916
▁series	-8.40936
▁every	-8.4096
▁start	-8.41058
most	-8.4133
▁chicago	-8.41355
▁dow	-8.41501
▁weeks	-8.41512
▁whe	-8.41562
▁gold	-8.41928
▁return	-8.4196
▁know	-8.42093
▁commission	-8.42585
▁data	-8.42603
▁estimated	-8.4277
ntil	-8.428
▁members	-8.42875
▁area	-8.43001
▁expect	-8.43192
▁nine	-8.43547
▁jones	-8.43899
▁employees	-8.4392
▁level	-8.44074
▁run	-8.44108
▁deal	-8.44483
▁found	-8.44577
▁orders	-8.45115
▁acquisition	-8.45408
▁drop	-8.45763
▁example	-8.45774
▁commercial	-8.46069
▁meeting	-8.46156
▁addition	-8.46192
▁need	-8.46232
▁latest	-8.46643
▁later	-8.46678
▁great	-8.46888
▁holding	-8.47042
▁near	-8.47098
▁north	-8.47184
▁senate	-8.47194
▁estate	-8.47285
▁tuesday	-8.47403
▁drug	-8.47527
▁proposal	-8.47656
▁building	-8.47961
▁r	-8.48013
▁texas	-8.48298
▁rise	-8.48559
▁your	-8.48615
▁robert	-8.48636
▁east	-8.48793
▁order	-8.48857
▁position	-8.49545
▁currently	-8.49593
▁paid	-8.49619
▁possible	-8.4973
▁investor	-8.4989
▁account	-8.49914
▁purchase	-8.49952
▁washington	-8.50118
▁proposed	-8.50163
▁nation	-8.50311
▁future	-8.50348
▁offered	-8.50418
▁better	-8.50595
▁amount	-8.51098
▁once	-8.51129
▁clear	-8.51402
▁damage	-8.51581
▁f	-8.5211
▁private	-8.52201
▁spending	-8.52236
▁product	-8.52251
▁mortgage	-8.52755
▁technology	-8.52938
▁often	-8.53497
▁received	-8.53557
▁charge	-8.53959
ok	-8.54
▁executives	-8.54068
▁low	-8.54231
▁decision	-8.54694
▁changes	-8.54813
▁named	-8.54817
▁terms	-8.54864
▁g	-8.54985
▁october	-8.55254
▁particular	-8.55285
▁l	-8.55577
▁filed	-8.55834
▁force	-8.55874
▁defense	-8.55919
▁gas	-8.56013
ought	-8.56033
▁top	-8.56067
▁division	-8.56199
▁information	-8.56274
▁customers	-8.56362
▁within	-8.58084
ard	-8.58515
▁budget	-8.58719
scal	-8.5896
▁enough	-8.59203
▁began	-8.59218
▁america	-8.5935
▁raise	-8.59529
▁states	-8.59658
ting	-8.5973
▁per	-8.59843
▁europe	-8.60142
▁outstanding	-8.60237
▁came	-8.60645
▁rights	-8.60712
▁equipment	-8.60726
age	-8.60851
▁full	-8.60939
hose	-8.61041
▁others	-8.6111
▁consumer	-8.6121
▁ford	-8.61419
▁told	-8.61486
▁hard	-8.6161
ite	-8.61646
▁warner	-8.61743
▁industries	-8.61752
▁transaction	-8.62248
k	-8.62303
▁boost	-8.62477
▁auto	-8.6266
▁dropped	-8.62791
▁potential	-8.62805
▁european	-8.6299
▁previous	-8.63073
▁finance	-8.63119
▁additional	-8.63178
man	-8.63243
▁joint	-8.63742
▁july	-8.63823
▁j	-8.63877
▁steel	-8.64303
▁rich	-8.64483
▁hope	-8.64863
▁lot	-8.64872
▁compare	-8.64986
▁local	-8.65174
▁jam	-8.65349
▁jaguar	-8.65404
▁tokyo	-8.6541
▁inflation	-8.65413
ward	-8.65499
en	-8.65556
▁never	-8.65664
▁fed	-8.6588
▁equity	-8.65895
▁personal	-8.66285
▁action	-8.6637
▁mus	-8.6664
ally	-8.66884
▁h	-8.66901
▁important	-8.6703
▁banking	-8.6742
▁computers	-8.67688
▁best	-8.67953
▁shareholders	-8.67975
▁managers	-8.68036
▁instead	-8.6811
▁university	-8.68118
▁free	-8.68256
▁programs	-8.68507
▁labor	-8.68689
▁manager	-8.68789
▁makes	-8.68851
▁financing	-8.69187
▁claims	-8.692
▁mich	-8.69218
▁gains	-8.6939
▁got	-8.69464
▁special	-8.69481
▁away	-8.69524
▁march	-8.69772
▁construction	-8.69778
or	-8.69825
▁charges	-8.69964
▁similar	-8.70327
▁fall	-8.70467
▁desp	-8.70753
▁things	-8.70791
▁place	-8.71073
▁believe	-8.7133
▁turn	-8.71416
▁continued	-8.71572
▁asked	-8.71631
▁increasing	-8.72052
▁dollars	-8.72156
▁pre	-8.72318
i	-8.73054
▁family	-8.73124
▁calif	-8.73158
▁june	-8.7316
▁suit	-8.73266
▁head	-8.73282
led	-8.73286
▁act	-8.73388
▁los	-8.73395
▁above	-8.73735
▁sept	-8.73736
▁advertising	-8.73777
▁face	-8.74194
▁below	-8.7435
▁food	-8.74598
▁units	-8.74613
▁western	-8.74852
▁posted	-8.75181
▁bills	-8.75269
▁compar	-8.75359
▁china	-8.7549
▁lost	-8.75526
▁soon	-8.75931
▁seem	-8.76139
▁fourth	-8.7614
▁taken	-8.76201
▁via	-8.7624
▁legal	-8.76251
▁restructuring	-8.76641
▁marketing	-8.76675
▁stores	-8.76816
▁hand	-8.7699
▁risk	-8.77131
▁vote	-8.77156
▁reduce	-8.77247
▁security	-8.77287
▁me	-8.77718
▁final	-8.77761
▁boston	-8.77882
w	-8.78039
based	-8.78324
▁fact	-8.78387
▁subsidiary	-8.78498
▁tv	-8.78557
▁options	-8.78616
▁included	-8.78745
▁young	-8.78799
▁figures	-8.78846
▁left	-8.79086
▁network	-8.794
▁center	-8.79482
▁find	-8.79619
▁project	-8.79817
▁effort	-8.79976
▁contracts	-8.8
▁dealers	-8.80088
▁meanwhile	-8.80337
▁working	-8.8048
▁ra	-8.80557
▁question	-8.80579
▁portfolio	-8.80657
▁statement	-8.80702
early	-8.80762
▁main	-8.80928
▁countries	-8.80957
▁talk	-8.81019
▁effect	-8.81228
▁angeles	-8.81587
▁savings	-8.81742
▁standard	-8.81904
ern	-8.81928
▁along	-8.81942
▁allow	-8.81974
▁using	-8.81981
▁jump	-8.82075
▁holders	-8.82127
▁itself	-8.82228
▁available	-8.82229
▁approved	-8.82279
▁hit	-8.82573
▁reports	-8.82599
▁parent	-8.82709
▁noted	-8.82712
▁ibm	-8.8281
▁usual	-8.83191
▁david	-8.83467
▁percent	-8.83603
▁lawyers	-8.83624
▁cars	-8.84007
ry	-8.84219
▁seven	-8.84234
▁dividend	-8.84276
▁reached	-8.84337
▁dr	-8.84566
▁deficit	-8.84588
▁process	-8.84652
▁black	-8.84929
▁domestic	-8.8539
▁telephone	-8.85415
▁either	-8.85508
▁cases	-8.85542
▁germany	-8.8571
▁pro	-8.85878
▁institute	-8.86201
earlier	-8.86212
▁reserve	-8.86229
▁airlines	-8.86242
▁efforts	-8.86435
▁chemical	-8.86498
▁re	-8.86518
ble	-8.86535
▁hav	-8.86758
▁school	-8.86921
▁lead	-8.86966
▁pacific	-8.87278
▁approval	-8.87298
▁express	-8.87439
b	-8.87445
▁measure	-8.87696
▁individual	-8.87817
ful	-8.88037
ic	-8.88067
ary	-8.88259
▁talks	-8.88299
▁increases	-8.88311
▁previously	-8.88349
▁secretary	-8.88492
x	-8.88589
▁known	-8.88679
tax	-8.88704
▁given	-8.89065
▁eastern	-8.89409
▁view	-8.89485
▁calls	-8.8962
▁gained	-8.8972
▁canada	-8.89766
▁payments	-8.89828
▁party	-8.89921
▁bay	-8.90053
▁single	-8.90111
▁manufacturing	-8.9012
▁name	-8.90193
▁job	-8.90559
▁post	-8.90575
▁saying	-8.90955
▁attorney	-8.9127
▁slightly	-8.91491
▁poor	-8.91606
▁earn	-8.9165
ton	-8.91659
▁bring	-8.91747
▁acquired	-8.91763
▁pressure	-8.92017
▁strategy	-8.92194
▁rep	-8.92233
▁helped	-8.92411
▁venture	-8.92604
▁airline	-8.9266
▁performance	-8.9281
▁raised	-8.92896
▁ad	-8.92946
▁german	-8.93043
▁team	-8.93462
▁step	-8.93463
▁build	-8.9351
▁block	-8.93546
▁military	-8.9355
▁television	-8.93556
▁call	-8.93752
▁why	-8.93983
▁machines	-8.94026
▁australia	-8.94261
▁medical	-8.94262
▁abortion	-8.94487
▁marks	-8.94628
▁different	-8.94748
▁magazine	-8.94831
▁william	-8.94878
▁clients	-8.94902
▁heavy	-8.9496
▁britain	-8.94969
▁property	-8.94974
▁energy	-8.94983
▁electric	-8.95007
▁coming	-8.95047
▁chance	-8.95107
▁profits	-8.9597
▁canad	-8.96052
▁dec	-8.96107
▁directors	-8.96175
▁something	-8.96427
▁test	-8.96486
▁failed	-8.96525
▁role	-8.96539
▁district	-8.97064
▁bankruptcy	-8.9715
ially	-8.97173
▁went	-8.97288
▁add	-8.97292
▁completed	-8.97332
to	-8.97425
▁limited	-8.9745
▁attempt	-8.97452
▁mass	-8.97512
▁growing	-8.97577
▁fees	-8.9758
▁press	-8.97649
▁settlement	-8.9789
▁estimates	-8.97912
▁groups	-8.97919
▁o	-8.98057
ael	-8.98073
▁investments	-8.98615
▁activity	-8.98624
▁legislation	-8.98642
▁makers	-8.98787
▁acquire	-8.99201
▁remains	-8.99239
▁merrill	-8.99364
▁columbia	-8.99367
▁push	-8.99383
▁levels	-8.9983
▁focus	-8.99837
▁communications	-8.99952
▁tell	-9.00197
▁consider	-9.0041
▁par	-9.00679
▁motor	-9.0081
▁apparent	-9.00917
▁bigge	-9.00976
▁hold	-9.01028
▁prime	-9.01258
one	-9.0128
th	-9.01287
▁seeking	-9.01296
▁ever	-9.01368
▁currency	-9.01405
▁receive	-9.01431
▁am	-9.01498
▁institutions	-9.01645
▁huge	-9.0165
▁independent	-9.0167
▁leaders	-9.01672
▁lines	-9.02369
▁begin	-9.02388
▁lynch	-9.02396
▁conference	-9.02413
▁scheduled	-9.02486
▁list	-9.02587
▁reserves	-9.02724
▁involved	-9.02734
▁pa	-9.02819
▁range	-9.0292
▁region	-9.0293
▁mark	-9.03032
▁outside	-9.03092
▁kong	-9.03178
▁transportation	-9.03194
▁leader	-9.03222
▁staff	-9.03237
and	-9.03473
▁gm	-9.0352
▁taking	-9.03609
ized	-9.03652
▁probabl	-9.03753
▁buyers	-9.03857
▁goods	-9.03919
▁april	-9.03952
▁really	-9.03966
month	-9.03979
▁always	-9.03983
▁interests	-9.04013
▁basis	-9.04035
▁longer	-9.0418
▁wants	-9.04492
▁brokerage	-9.04761
▁producers	-9.04784
▁espec	-9.0479
▁daily	-9.04816
▁form	-9.04833
▁man	-9.0506
▁reason	-9.05518
▁campaign	-9.05613
▁key	-9.05678
▁auction	-9.05684
time	-9.05715
index	-9.05851
▁require	-9.05937
▁concerns	-9.061
▁estimate	-9.06106
ional	-9.06219
▁themselves	-9.06348
▁competition	-9.0635
▁means	-9.06473
▁meet	-9.06549
ar	-9.06918
▁drexel	-9.07143
▁impact	-9.07144
▁disclosed	-9.07165
▁whole	-9.07354
▁significant	-9.0778
▁doing	-9.07819
leading	-9.07882
u	-9.07925
▁bad	-9.0794
▁course	-9.08127
▁adds	-9.08183
▁claim	-9.08247
rson	-9.08278
▁owns	-9.0836
▁related	-9.08365
▁projects	-9.08486
▁started	-9.08614
▁french	-9.08775
▁supply	-9.08782
▁hours	-9.08931
▁plants	-9.08977
▁retail	-9.08985
▁reduced	-9.09214
▁morgan	-9.09603
▁shea	-9.09622
▁majority	-9.09629
▁survey	-9.09764
▁eight	-9.09775
▁succeed	-9.09896
▁arbitrage	-9.10031
▁appeal	-9.10173
▁base	-9.10335
▁wednesday	-9.10444
▁hurt	-9.10453
▁issued	-9.10486
▁quickly	-9.10523
▁care	-9.106
▁seems	-9.10726
▁rules	-9.10835
▁war	-9.10883
▁holdings	-9.10932
▁sen	-9.10973
▁aid	-9.1104
▁needed	-9.11111
▁journal	-9.11275
▁fixed	-9.11292
▁areas	-9.1135
ment	-9.11503
▁benefit	-9.11549
▁limit	-9.11858
▁seen	-9.1186
▁december	-9.12128
▁community	-9.12131
day	-9.1221
▁accounts	-9.12466
▁done	-9.12473
he	-9.12644
▁partners	-9.12672
▁volatility	-9.12987
▁generally	-9.13071
▁traded	-9.13071
▁kind	-9.13161
▁human	-9.13202
▁situation	-9.1325
▁study	-9.13282
▁manufacturers	-9.13605
▁direct	-9.13614
▁worth	-9.13769
▁thursday	-9.13844
▁women	-9.13846
▁beginning	-9.1385
▁appear	-9.14242
share	-9.14329
▁asset	-9.1449
▁subject	-9.14941
▁filing	-9.14945
rs	-9.14962
▁recession	-9.15023
▁thought	-9.15033
▁active	-9.15139
▁natural	-9.15357
▁inter	-9.15482
▁plc	-9.15574
▁protection	-9.15606
▁planned	-9.15614
at	-9.15809
▁imports	-9.15832
▁taxes	-9.15954
▁men	-9.16042
▁seek	-9.16142
▁space	-9.16158
▁produce	-9.16168
▁democratic	-9.16483
▁history	-9.16485
▁brokers	-9.16507
j	-9.16643
▁target	-9.16691
less	-9.16805
▁exist	-9.16838
▁feel	-9.16853
▁light	-9.16931
▁media	-9.17041
▁note	-9.17438
▁ahead	-9.17443
▁let	-9.17643
▁required	-9.17745
▁rally	-9.17967
▁thing	-9.18046
▁yields	-9.1811
▁changed	-9.18111
▁summer	-9.18265
▁perhaps	-9.18265
▁veto	-9.18275
▁guber	-9.19165
▁software	-9.19177
▁advanced	-9.19385
▁mood	-9.19463
▁justice	-9.19593
▁considered	-9.19617
▁sure	-9.19742
▁anything	-9.20099
▁housing	-9.20133
▁france	-9.20165
▁showed	-9.20212
▁ho	-9.2022
▁delivery	-9.20262
▁specific	-9.20351
▁creditors	-9.2037
▁brothers	-9.20377
▁floor	-9.20452
▁benefits	-9.20815
g	-9.20838
▁noriega	-9.21016
▁georgia	-9.21016
▁preferred	-9.21037
▁relative	-9.211
▁shareholder	-9.21292
▁cancer	-9.213
▁exports	-9.21304
▁francs	-9.21412
▁difficult	-9.2162
▁sent	-9.21669
▁returns	-9.21681
▁parts	-9.21728
▁park	-9.21774
▁cbs	-9.21939
▁entertainment	-9.21962
be	-9.21969
▁carry	-9.21978
▁continuing	-9.2202
▁stop	-9.2206
land	-9.2229
▁merger	-9.22305
▁announcement	-9.22325
▁closing	-9.22454
▁bankers	-9.22634
▁play	-9.22876
h	-9.22888
▁george	-9.22892
▁minimum	-9.22894
▁children	-9.22896
▁nothing	-9.22907
▁typical	-9.22997
▁sharp	-9.23042
▁inde	-9.23063
turned	-9.23101
▁machine	-9.23187
▁minister	-9.2325
back	-9.23623
over	-9.23655
est	-9.24203
▁article	-9.24219
wide	-9.24289
▁crash	-9.24408
▁wanted	-9.24631
▁environmental	-9.24661
▁broad	-9.24717
▁evidence	-9.24809
▁spokeswoman	-9.24815
▁offset	-9.2486
▁smaller	-9.25007
▁le	-9.2502
▁partner	-9.25172
▁pilots	-9.25381
ong	-9.25382
▁watch	-9.25584
▁cover	-9.25619
▁himself	-9.25778
▁side	-9.25931
▁sharply	-9.25995
▁created	-9.26118
▁thrift	-9.26153
▁centr	-9.26165
▁pound	-9.2623
▁source	-9.26251
▁green	-9.2639
▁red	-9.26565
▁stay	-9.26694
▁overseas	-9.26763
▁resources	-9.26875
▁quake	-9.27236
▁figure	-9.27281
▁nor	-9.27303
▁initial	-9.27519
▁improve	-9.27524
▁sign	-9.2771
▁hugo	-9.27745
▁owned	-9.27746
▁battle	-9.27749
▁unchanged	-9.27753
▁actually	-9.27962
▁cause	-9.28027
▁sector	-9.28048
▁size	-9.28128
▁member	-9.2819
▁brand	-9.28218
▁session	-9.2822
til	-9.28422
▁converti	-9.2854
▁review	-9.28861
▁irs	-9.28881
▁won	-9.28941
▁game	-9.28984
▁giant	-9.29185
▁water	-9.29397
▁kidder	-9.29753
▁ga	-9.29989
▁directly	-9.3007
▁continues	-9.30142
▁night	-9.30356
▁conditions	-9.3056
▁book	-9.30628
mon	-9.30694
▁across	-9.30835
▁tons	-9.30914
▁create	-9.31012
▁designed	-9.31136
▁regulators	-9.31208
▁strike	-9.31285
▁letter	-9.31318
▁lack	-9.31478
▁americans	-9.3149
▁built	-9.31497
▁protect	-9.31892
▁represent	-9.31907
▁decided	-9.32009
▁maintain	-9.32009
rate	-9.32192
▁climb	-9.32285
▁provision	-9.32325
▁response	-9.32365
▁spend	-9.32367
▁questions	-9.32373
▁closely	-9.3259
▁transactions	-9.32899
▁produced	-9.33184
▁rest	-9.3352
ous	-9.33552
▁prevent	-9.33554
▁separate	-9.33677
▁believes	-9.33691
▁simpl	-9.33759
▁behind	-9.33895
▁original	-9.33902
▁running	-9.33909
▁smith	-9.33911
▁field	-9.33924
▁sense	-9.34022
▁sometime	-9.34078
▁woman	-9.34137
gains	-9.34202
f	-9.34215
▁operation	-9.34423
▁newspaper	-9.34458
market	-9.34503
▁rising	-9.34558
▁regulator	-9.3458
▁fe	-9.34689
▁land	-9.34813
▁associates	-9.34859
▁design	-9.34894
reme	-9.34937
▁january	-9.34962
▁complete	-9.34965
▁brought	-9.34971
▁capacity	-9.34983
▁section	-9.35004
▁class	-9.35064
▁sec	-9.35106
▁rule	-9.35276
▁economists	-9.35407
▁idea	-9.35528
▁peter	-9.35606
▁avoid	-9.35664
hman	-9.35705
▁effective	-9.35822
um	-9.36001
▁hurricane	-9.36043
▁spent	-9.36071
▁leveraged	-9.36108
▁spread	-9.36113
▁sony	-9.3626
counter	-9.36335
▁paying	-9.36378
▁wage	-9.36407
▁traditional	-9.36579
▁democrats	-9.36599
uring	-9.36602
▁sup	-9.36615
▁allowed	-9.36636
▁discount	-9.36829
▁moves	-9.37093
▁civil	-9.37117
▁agencies	-9.37126
▁gorbachev	-9.37129
▁ruling	-9.37134
z	-9.37231
▁fully	-9.37256
it	-9.37268
▁merc	-9.37336
▁aim	-9.37344
▁trial	-9.37732
▁expenses	-9.37791
▁organization	-9.37912
▁actual	-9.37998
▁serious	-9.38
▁followed	-9.38056
▁favor	-9.38173
▁emergency	-9.38243
▁ability	-9.38257
▁alleged	-9.38273
▁consumers	-9.38288
▁jr	-9.38339
▁la	-9.38344
▁jobs	-9.38503
▁fear	-9.38608
▁package	-9.38632
▁forced	-9.38869
▁met	-9.38947
▁access	-9.39366
up	-9.3947
▁elect	-9.3962
▁bell	-9.39639
▁economist	-9.40004
▁matter	-9.40018
▁develop	-9.4007
▁slow	-9.40395
▁shows	-9.40415
▁dinkins	-9.40455
le	-9.40481
▁pension	-9.40523
developed	-9.4076
ter	-9.4079
▁spring	-9.41192
▁payment	-9.41226
▁cable	-9.41355
▁funding	-9.41554
▁mutual	-9.41588
▁reagan	-9.41588
▁facilities	-9.41599
▁together	-9.41636
▁anti	-9.41652
▁introduced	-9.41732
▁experience	-9.41876
▁interview	-9.41972
▁farmers	-9.42095
▁drive	-9.42279
▁type	-9.4232
▁decade	-9.42321
▁partnership	-9.42333
▁offices	-9.4245
▁salo	-9.42451
▁commerce	-9.42749
▁headquarters	-9.42752
▁exceed	-9.42753
son	-9.42801
▁import	-9.4337
▁flat	-9.43395
▁morning	-9.43413
▁deposit	-9.43486
▁death	-9.43524
▁leave	-9.43647
▁plunge	-9.43694
▁quality	-9.43839
▁activities	-9.43909
▁poland	-9.43909
▁win	-9.43932
▁county	-9.44007
ital	-9.44036
▁greater	-9.44057
ago	-9.44093
▁instance	-9.44114
▁holds	-9.44114
▁signed	-9.44332
▁age	-9.44645
▁premium	-9.44683
ily	-9.44725
called	-9.44774
▁miles	-9.45024
▁hundred	-9.45078
▁ministry	-9.45081
▁failure	-9.45083
▁johnson	-9.45121
▁resigned	-9.45131
▁equal	-9.45367
▁researchers	-9.45474
▁reach	-9.45716
▁needs	-9.45724
▁pick	-9.45758
▁mar	-9.46089
▁famili	-9.46208
▁w	-9.46226
▁margins	-9.4627
▁peters	-9.46309
▁travel	-9.46366
cal	-9.46422
▁separately	-9.46532
▁sports	-9.46602
▁ways	-9.4663
▁fast	-9.46883
so	-9.47087
▁conservative	-9.47117
▁chain	-9.47215
issan	-9.47433
▁thomas	-9.47468
▁valley	-9.47469
▁safety	-9.47474
▁trader	-9.47556
▁stand	-9.47581
▁overall	-9.47626
▁st	-9.47716
▁manag	-9.48109
▁electronic	-9.48305
▁forecast	-9.48344
▁moved	-9.48449
▁success	-9.48575
▁conduct	-9.48874
▁widely	-9.4889
is	-9.4912
▁retain	-9.49258
▁q	-9.49446
▁approach	-9.49474
▁accept	-9.49518
▁term	-9.49649
▁join	-9.49742
▁person	-9.49867
▁baker	-9.49928
▁authority	-9.49932
▁dozen	-9.49935
▁mitsu	-9.50016
▁owners	-9.501
▁write	-9.50292
▁forces	-9.50311
ive	-9.50542
▁corn	-9.50689
▁request	-9.50815
▁gene	-9.50828
▁declines	-9.5099
▁mid	-9.51059
▁export	-9.51084
▁beyond	-9.51172
▁opposition	-9.51181
▁properties	-9.51181
▁engineering	-9.51395
▁debentures	-9.51404
▁improved	-9.51483
ford	-9.51595
▁larger	-9.51647
▁indicated	-9.51666
▁v	-9.51703
▁read	-9.51743
▁provisions	-9.51833
▁match	-9.52044
▁blue	-9.52212
▁provided	-9.52213
▁substantial	-9.52219
▁dig	-9.5228
▁fraud	-9.5243
▁policies	-9.52442
▁speculation	-9.52449
estate	-9.5246
▁electronics	-9.52834
me	-9.52952
us	-9.53106
▁ab	-9.53318
▁date	-9.5332
▁image	-9.53452
▁investigation	-9.53467
▁version	-9.53589
third	-9.53606
▁materials	-9.53683
▁panama	-9.53717
▁council	-9.5372
▁negative	-9.53724
▁unusual	-9.53743
▁comp	-9.53758
ham	-9.53799
▁trades	-9.53804
▁africa	-9.53837
▁couple	-9.53867
▁alone	-9.53981
▁proceeds	-9.54084
▁fight	-9.54466
▁social	-9.54475
▁indicate	-9.54508
▁practice	-9.54534
▁lawyer	-9.54718
▁customer	-9.54724
▁disaster	-9.54751
▁trend	-9.54767
▁carrier	-9.54787
▁affect	-9.54807
hen	-9.54997
▁nasdaq	-9.55015
▁hutton	-9.55015
▁stanley	-9.55019
▁brown	-9.55021
▁planning	-9.55047
▁pence	-9.5506
▁feet	-9.5522
el	-9.5526
▁cross	-9.55337
▁cuts	-9.55365
▁takes	-9.55419
▁measures	-9.55434
▁highly	-9.55493
▁ask	-9.5553
▁hands	-9.55562
▁brands	-9.5575
ler	-9.55808
▁deals	-9.55865
▁consultant	-9.56074
▁option	-9.56082
▁store	-9.56238
▁treatment	-9.56341
▁appropriations	-9.56346
▁cray	-9.56417
▁motors	-9.56424
▁art	-9.56613
▁story	-9.5667
▁discuss	-9.56799
▁individuals	-9.56817
▁agree	-9.56859
▁willing	-9.5692
▁du	-9.57177
▁students	-9.57256
▁rating	-9.57434
▁republican	-9.57447
▁double	-9.57468
▁subordinate	-9.57497
▁shift	-9.57523
▁education	-9.57596
▁charles	-9.57657
▁passed	-9.57659
▁lawmakers	-9.57678
▁everyone	-9.57716
▁jury	-9.57753
▁necessary	-9.57783
▁lawson	-9.57787
▁cited	-9.57993
▁sil	-9.58138
▁purchases	-9.58403
▁fire	-9.58621
ted	-9.5865
▁pull	-9.58717
▁break	-9.58809
▁publicly	-9.58813
▁dispute	-9.58818
▁rough	-9.5891
▁suffer	-9.58917
▁dis	-9.58996
▁minority	-9.59022
▁commodity	-9.59022
clear	-9.59025
▁bench	-9.59026
▁police	-9.59027
▁neither	-9.59033
▁rejected	-9.59125
▁hour	-9.59132
▁negotiations	-9.592
▁jose	-9.5922
▁prompt	-9.59233
▁else	-9.59255
▁tough	-9.59464
co	-9.59536
▁nav	-9.5955
▁brad	-9.59555
▁experts	-9.596
▁worked	-9.59784
▁moving	-9.60084
▁fuel	-9.60277
▁nu	-9.60333
▁attention	-9.60391
▁reorganization	-9.60399
▁eventually	-9.60436
▁lose	-9.60558
▁expectations	-9.60623
red	-9.60651
▁interna	-9.60753
▁competitors	-9.60859
ver	-9.6089
▁amounts	-9.60952
▁non	-9.61069
▁interested	-9.61157
▁raising	-9.61407
▁works	-9.61487
▁entire	-9.61541
ion	-9.61705
▁influence	-9.61778
▁manhattan	-9.61779
▁petroleum	-9.61779
▁retirement	-9.61784
▁heavily	-9.61785
▁popular	-9.61789
▁mexico	-9.61796
▁grand	-9.6182
▁society	-9.61848
old	-9.61853
▁promise	-9.61907
▁vari	-9.61929
▁mean	-9.61993
▁accounting	-9.62037
▁des	-9.62097
▁lin	-9.62238
▁discover	-9.62256
▁replace	-9.62257
▁positions	-9.62341
▁drugs	-9.62462
▁standards	-9.62473
▁sought	-9.62509
▁weak	-9.62691
▁involv	-9.62704
▁ag	-9.62761
▁factors	-9.62769
▁suggest	-9.62802
▁considering	-9.62819
ty	-9.62949
▁modest	-9.62956
▁bureau	-9.6301
▁reform	-9.63011
ever	-9.6302
▁film	-9.63033
▁criminal	-9.63039
▁improvement	-9.63041
▁split	-9.63172
▁chapter	-9.63181
▁november	-9.63184
▁ownership	-9.63187
▁technical	-9.63198
▁sound	-9.63208
▁output	-9.63213
▁star	-9.63232
▁anyone	-9.63344
▁immediately	-9.63354
▁flow	-9.63437
▁offers	-9.63555
▁giv	-9.63896
valued	-9.64014
▁frank	-9.64161
▁narrow	-9.6424
mark	-9.64396
▁municipal	-9.64475
▁college	-9.64487
▁gulf	-9.64593
▁copper	-9.64611
▁pentagon	-9.64612
▁litigation	-9.64616
▁opportunity	-9.64617
▁ban	-9.64627
▁saw	-9.64768
▁opening	-9.64891
▁va	-9.64921
▁scientists	-9.64987
▁soviets	-9.65007
▁victims	-9.65049
▁items	-9.65069
▁season	-9.65127
▁mail	-9.6524
▁dividends	-9.65271
off	-9.65303
▁bar	-9.65467
came	-9.65468
▁developing	-9.6556
▁quot	-9.65574
▁trouble	-9.65674
▁bridge	-9.65701
▁advance	-9.65774
▁houses	-9.65844
▁principal	-9.65967
▁live	-9.65991
▁truck	-9.6604
▁moscow	-9.66054
▁england	-9.66057
▁aircraft	-9.66063
▁everything	-9.66067
▁events	-9.66089
▁bidding	-9.66112
▁owner	-9.66322
▁magazines	-9.66351
▁doubt	-9.66508
▁minutes	-9.66544
▁room	-9.66624
▁bids	-9.67119
pacific	-9.67288
▁strength	-9.67378
▁involve	-9.67402
▁lloyd	-9.67518
▁grow	-9.67525
▁swi	-9.67583
▁apple	-9.67609
▁convention	-9.67628
▁portion	-9.67789
▁reduction	-9.6789
▁monthly	-9.6793
▁concerned	-9.67968
tc	-9.68095
▁heart	-9.68227
▁gen	-9.68242
▁risks	-9.68602
▁uni	-9.68623
▁details	-9.68625
▁ads	-9.68853
▁fa	-9.68883
▁crime	-9.68952
▁hotel	-9.68952
▁panel	-9.6896
▁debate	-9.68962
▁maturity	-9.69021
▁balance	-9.69046
▁thatcher	-9.69071
▁restrictions	-9.6927
▁broadcasting	-9.69294
▁coast	-9.69335
▁sort	-9.69357
▁cons	-9.69498
▁sun	-9.69533
her	-9.69583
all	-9.69781
▁handle	-9.69921
▁predict	-9.70002
▁contain	-9.7001
▁pending	-9.70186
▁glob	-9.70247
▁tender	-9.7037
▁attract	-9.70414
▁segment	-9.70476
▁difference	-9.70478
▁wrote	-9.70523
▁paribas	-9.70533
▁chinese	-9.70533
▁ultimate	-9.70536
▁facility	-9.7057
▁parties	-9.70586
▁easy	-9.70594
▁true	-9.70612
▁edward	-9.70639
▁combined	-9.70677
▁pricing	-9.70686
▁troubled	-9.70785
▁denie	-9.70849
▁requirements	-9.70912
▁town	-9.71
▁thousands	-9.71004
▁believed	-9.71171
▁operate	-9.71244
▁burn	-9.71319
▁acquisitions	-9.7139
stitutional	-9.71495
ph	-9.71528
▁sources	-9.71822
▁movie	-9.72045
▁ohio	-9.72054
▁morris	-9.721
▁relations	-9.72107
▁editor	-9.72201
▁track	-9.72208
▁producer	-9.72218
ial	-9.72219
▁prepared	-9.72281
▁compa	-9.72398
▁insist	-9.72718
▁tele	-9.72813
bond	-9.72955
▁players	-9.72981
care	-9.73062
▁vehicles	-9.73252
▁developer	-9.73341
ms	-9.73365
▁korea	-9.73382
▁blame	-9.73405
▁arizona	-9.73631
▁tomorrow	-9.73634
▁expansion	-9.73637
▁revised	-9.73651
▁employee	-9.73665
▁depend	-9.73676
▁exercise	-9.73682
▁goldman	-9.73687
▁decide	-9.73698
▁highest	-9.73737
▁tried	-9.73755
▁k	-9.73804
▁ratings	-9.7387
▁publishing	-9.7388
▁mortgages	-9.74118
▁prosecutors	-9.74218
▁virtu	-9.74491
anta	-9.7473
▁mayor	-9.7482
▁chips	-9.74853
▁except	-9.75049
▁guilty	-9.75214
▁expensive	-9.75224
▁consulting	-9.75225
▁painewebber	-9.75226
▁broker	-9.75227
▁cities	-9.75234
▁color	-9.75283
▁declining	-9.75309
▁laws	-9.75333
▁released	-9.75447
▁settled	-9.75453
▁speed	-9.75497
▁launched	-9.75552
▁plunged	-9.75592
use	-9.75614
▁conn	-9.75638
▁homes	-9.75918
▁mae	-9.75929
▁slowing	-9.76078
▁damaged	-9.76095
▁mac	-9.76174
quite	-9.76262
▁present	-9.76502
▁caus	-9.76589
▁collapse	-9.76596
▁basic	-9.76721
▁extreme	-9.7683
▁sterling	-9.76833
▁competitive	-9.76834
▁manville	-9.76838
▁intelligence	-9.76839
▁waiting	-9.76926
▁profitable	-9.77008
▁speak	-9.77025
▁assistan	-9.77076
thus	-9.77167
▁beca	-9.77303
▁chemicals	-9.77474
▁safe	-9.77596
▁centers	-9.77649
▁bear	-9.77682
▁sh	-9.77698
ul	-9.77752
▁environment	-9.77791
as	-9.77852
▁controls	-9.77873
▁sea	-9.77885
▁corporations	-9.77946
ust	-9.78095
igation	-9.78351
▁dallas	-9.78464
▁radio	-9.78465
▁toronto	-9.78468
▁slowdown	-9.78475
▁distribution	-9.78483
▁surprising	-9.785
▁material	-9.78515
▁da	-9.78523
▁recovery	-9.78681
ce	-9.78844
▁quote	-9.79278
▁mess	-9.79286
▁soft	-9.79311
▁purchased	-9.79374
▁pret	-9.79383
▁insurers	-9.79421
▁charged	-9.79478
▁headed	-9.795
▁phone	-9.79607
mid	-9.7979
▁ending	-9.79902
▁release	-9.79947
▁tests	-9.79953
▁phil	-9.80037
▁delay	-9.80119
▁exxon	-9.80125
▁sachs	-9.80126
▁philip	-9.80131
▁israel	-9.80131
▁campeau	-9.80133
▁uncertainty	-9.80146
▁threat	-9.80171
▁invest	-9.80235
▁voters	-9.80348
▁understand	-9.80418
▁republicans	-9.80453
▁actions	-9.80485
▁predicted	-9.80492
▁documents	-9.80516
▁mind	-9.80519
etary	-9.80573
▁schools	-9.80784
▁gets	-9.80895
▁expand	-9.80929
▁placed	-9.80958
▁contribute	-9.8096
▁devices	-9.80974
▁learn	-9.81049
▁represents	-9.81076
▁margin	-9.81155
▁ge	-9.81176
▁coupon	-9.81596
state	-9.81597
▁unlike	-9.81608
▁nations	-9.81635
▁successful	-9.8169
▁mcca	-9.81692
▁jack	-9.81811
▁traffic	-9.81816
▁krenz	-9.81819
▁trigger	-9.81827
▁complex	-9.81833
▁utilities	-9.81833
▁transfer	-9.81834
▁aero	-9.81896
▁trucks	-9.81941
▁advertisers	-9.81943
▁clean	-9.82005
▁election	-9.82014
▁lending	-9.82034
▁paris	-9.82036
▁steps	-9.82054
▁plus	-9.82054
▁genetic	-9.82057
▁primary	-9.82063
▁sears	-9.8213
▁save	-9.82197
▁affected	-9.82287
▁affairs	-9.82293
▁underwriters	-9.82641
▁buildings	-9.82741
▁signs	-9.82899
end	-9.82901
▁exchanges	-9.82954
house	-9.83148
▁obtain	-9.83185
▁launch	-9.83188
▁arm	-9.83376
▁elections	-9.83486
▁club	-9.83538
▁brief	-9.83542
▁mixte	-9.83546
▁luxury	-9.83547
▁lincoln	-9.8355
▁relief	-9.8355
▁trillion	-9.83555
▁essential	-9.83555
▁afternoon	-9.83556
▁elsewhere	-9.83558
▁century	-9.83574
▁breed	-9.83636
▁professional	-9.83725
▁whom	-9.83758
▁adviser	-9.83762
▁communist	-9.83771
▁structure	-9.83818
▁numbers	-9.83979
▁surged	-9.84005
▁accepted	-9.8406
by	-9.84093
▁fears	-9.8422
▁effects	-9.84488
▁del	-9.84566
▁adjusted	-9.84681
▁words	-9.84784
▁wild	-9.84848
▁stations	-9.85051
▁jersey	-9.853
▁liability	-9.85311
▁continental	-9.85319
▁mixed	-9.85439
▁client	-9.85467
▁alternative	-9.85492
▁voice	-9.85503
▁model	-9.85513
▁attack	-9.85552
▁established	-9.85628
space	-9.85645
▁ventures	-9.85777
▁significantly	-9.85809
▁residents	-9.85845
▁deposits	-9.8594
▁hearing	-9.86003
▁alan	-9.86084
▁cds	-9.86087
▁generate	-9.86273
rry	-9.86288
▁associate	-9.86335
▁prove	-9.86352
▁annually	-9.8653
▁deliver	-9.86565
▁mary	-9.86701
ory	-9.86828
▁normal	-9.86864
kept	-9.86991
▁falling	-9.87008
▁reasons	-9.8705
▁wrong	-9.87079
▁deputy	-9.87084
▁hostile	-9.8709
▁baseball	-9.8709
▁positive	-9.8709
▁february	-9.87091
▁nicaragua	-9.87093
▁alliance	-9.87097
▁worry	-9.8714
▁opposed	-9.8726
▁fuji	-9.87262
▁guidelines	-9.87265
▁hospital	-9.87306
▁opinion	-9.87313
▁supplies	-9.87318
▁sci	-9.87335
▁pass	-9.87359
▁substantially	-9.87423
▁controlled	-9.87449
▁fly	-9.8745
▁convert	-9.87496
▁fine	-9.87593
▁wh	-9.87634
▁vot	-9.87761
▁ease	-9.87992
ishi	-9.88184
▁metals	-9.88295
▁nbc	-9.88494
▁e	-9.88647
▁ready	-9.88708
trust	-9.88802
▁healthy	-9.88815
▁weakness	-9.88825
▁confidence	-9.88911
▁sells	-9.8896
▁finished	-9.89049
▁moment	-9.89143
▁amendment	-9.89164
▁highway	-9.89202
▁contribut	-9.89214
▁certificates	-9.89236
▁contrast	-9.89237
▁ground	-9.89259
▁practices	-9.89331
▁defendants	-9.89353
▁signal	-9.89504
▁proposals	-9.89747
▁seats	-9.89805
▁rock	-9.89863
▁books	-9.89864
▁critics	-9.8989
▁mon	-9.90025
communications	-9.90025
▁values	-9.90084
▁faces	-9.90221
▁ordered	-9.90367
▁regular	-9.9053
▁explain	-9.90703
▁florida	-9.90755
▁liquidity	-9.90761
▁gross	-9.90767
▁lee	-9.908
▁responsible	-9.90801
▁weekend	-9.90851
▁challenge	-9.9086
▁employment	-9.90912
▁bigger	-9.90944
▁gone	-9.9095
▁mc	-9.91011
▁prospect	-9.91132
▁station	-9.91162
▁title	-9.91165
ent	-9.91296
▁instruments	-9.91407
▁barrels	-9.91471
▁assume	-9.91508
▁managed	-9.91524
▁representatives	-9.91581
▁played	-9.91609
▁thrifts	-9.91903
▁cent	-9.91984
▁roll	-9.92168
om	-9.92268
ish	-9.92292
▁enter	-9.92292
▁leav	-9.92294
▁remained	-9.9239
▁surge	-9.92442
ers	-9.92488
▁hunt	-9.9258
▁crude	-9.92634
▁minor	-9.92641
▁prior	-9.92641
▁authorities	-9.92649
▁finding	-9.9267
▁stopped	-9.9268
▁losing	-9.92726
▁families	-9.92773
▁producing	-9.92804
▁relationship	-9.92968
ile	-9.92989
▁advantage	-9.92994
▁front	-9.92995
te	-9.93114
▁spot	-9.93357
▁imp	-9.93446
▁pace	-9.93574
lip	-9.93798
▁blacks	-9.94046
▁ounce	-9.94284
appears	-9.94301
▁sides	-9.94341
▁slipp	-9.94385
tive	-9.94448
▁exact	-9.94558
▁obvious	-9.94561
▁nekoosa	-9.94562
▁utility	-9.94565
▁frankfurt	-9.94567
▁leadership	-9.94571
▁felt	-9.94592
▁send	-9.94594
▁visit	-9.94634
▁abroad	-9.9466
▁soared	-9.94668
ate	-9.94748
▁scandal	-9.94922
▁affiliate	-9.94922
▁pharmaceutical	-9.94927
▁serve	-9.95035
▁condition	-9.95039
▁attorneys	-9.95082
▁promotion	-9.95129
▁none	-9.95137
▁primar	-9.95266
▁detail	-9.95314
food	-9.95461
▁candidates	-9.95478
▁names	-9.95512
▁core	-9.95553
▁rumors	-9.95557
▁describe	-9.95678
v	-9.95859
▁bit	-9.9589
pite	-9.95935
ness	-9.96198
▁extend	-9.96273
▁settle	-9.9629
▁operates	-9.9629
▁models	-9.96298
▁immediate	-9.96299
▁intend	-9.96306
tex	-9.96459
▁excess	-9.96513
rban	-9.9652
▁oakland	-9.96523
▁houston	-9.96523
▁prudential	-9.96529
▁extraordinar	-9.96531
yield	-9.96553
▁purchasing	-9.96567
▁suspended	-9.96594
▁encourage	-9.96601
▁ch	-9.96608
▁guarantee	-9.96653
▁temporary	-9.96656
▁older	-9.9679
▁stronger	-9.96848
▁stress	-9.96935
▁statistics	-9.96937
▁intended	-9.96954
▁decisions	-9.96967
▁suggested	-9.97012
▁patients	-9.97094
stock	-9.97213
▁parents	-9.97355
▁goal	-9.97559
of	-9.97822
▁ship	-9.97862
▁follows	-9.97908
▁stage	-9.97971
▁fis	-9.98013
▁establish	-9.98155
▁fail	-9.98454
▁renew	-9.98467
▁hot	-9.98477
▁sugar	-9.98496
▁extra	-9.98502
▁wife	-9.9851
▁twice	-9.98514
▁church	-9.98516
▁file	-9.98517
▁fair	-9.98525
▁compromise	-9.98527
▁moderate	-9.98536
▁boeing	-9.98538
▁assistance	-9.98541
▁direction	-9.98549
▁wonder	-9.98569
▁music	-9.98608
▁judges	-9.9863
▁wang	-9.98748
▁mca	-9.98763
▁italy	-9.98768
▁argue	-9.98776
▁determined	-9.9882
▁studies	-9.98854
▁confirmed	-9.98855
ether	-9.98898
▁flight	-9.9897
▁task	-9.98976
▁discussions	-9.99082
▁provid	-9.9925
▁odd	-9.99327
▁respond	-9.99384
▁pages	-9.99457
ook	-9.99595
▁cutting	-9.99645
lett	-9.99739
▁buyer	-9.99762
▁fairly	-9.99966
▁happen	-10.0007
▁shopp	-10.0008
▁structur	-10.0013
▁regard	-10.0021
▁disclose	-10.0038
▁select	-10.0054
▁citicorp	-10.0056
▁hollywood	-10.0056
▁restrict	-10.0057
▁negotiating	-10.0058
▁wake	-10.0058
▁movies	-10.0058
▁tend	-10.0061
▁coverage	-10.0061
▁river	-10.0066
▁king	-10.007
▁sam	-10.0081
▁training	-10.0084
▁hear	-10.0085
▁consultants	-10.0098
▁check	-10.0105
▁professor	-10.0105
▁movement	-10.0111
▁jan	-10.0116
▁wait	-10.0125
▁appeared	-10.0146
▁walk	-10.0151
col	-10.0153
▁senators	-10.0156
▁commitments	-10.019
▁automo	-10.0205
▁lambert	-10.0222
▁guarantees	-10.0226
▁confirm	-10.0232
formed	-10.0236
▁ii	-10.0253
▁event	-10.0253
▁quiet	-10.0263
▁mountain	-10.0264
▁volatile	-10.0265
▁usair	-10.0266
▁child	-10.0267
▁hud	-10.0269
▁beat	-10.0277
▁indication	-10.0278
▁mining	-10.0291
▁mine	-10.0292
▁wide	-10.0292
▁hire	-10.0298
▁factory	-10.0299
▁swings	-10.0307
▁navy	-10.0308
▁vehicle	-10.0316
▁aug	-10.0316
▁written	-10.0316
▁resolution	-10.0317
▁patent	-10.0317
▁pursue	-10.0319
jr	-10.0331
▁joined	-10.0331
▁strategi	-10.0343
▁word	-10.0358
citing	-10.0367
▁meetings	-10.0372
▁warrants	-10.0376
▁throw	-10.0384
▁formal	-10.04
ral	-10.0405
im	-10.0415
ied	-10.0429
▁door	-10.0434
▁adjust	-10.0435
▁style	-10.0437
▁ne	-10.0444
mex	-10.0455
▁advisers	-10.0459
berg	-10.0467
▁mgm	-10.0475
▁crisis	-10.0476
▁beijing	-10.0477
▁saturday	-10.0477
▁criticism	-10.0477
▁initiative	-10.0477
▁parliament	-10.0477
▁responsibility	-10.0478
▁shut	-10.0487
▁uses	-10.0493
lying	-10.0496
▁suggests	-10.0497
▁refused	-10.0499
▁served	-10.0522
▁pr	-10.0523
▁carolina	-10.0534
▁reaction	-10.0535
▁mere	-10.0542
▁farm	-10.0558
▁fac	-10.0577
▁regulations	-10.0579
grade	-10.0588
▁upon	-10.063
▁maxim	-10.0646
▁returned	-10.0665
▁creat	-10.0685
▁brazil	-10.0694
▁square	-10.0694
▁saatchi	-10.0694
▁ceiling	-10.0694
▁singapore	-10.0694
▁personnel	-10.0694
▁supposed	-10.0694
▁machinists	-10.0695
▁switzerland	-10.0695
▁exploration	-10.0695
▁ma	-10.0698
▁critical	-10.07
▁foot	-10.0705
▁worried	-10.0708
▁ski	-10.0712
▁forest	-10.0713
▁politics	-10.0715
▁hill	-10.0716
▁apply	-10.0721
▁camp	-10.0731
▁initially	-10.0745
▁location	-10.0754
▁picture	-10.0755
▁audience	-10.0755
▁defend	-10.0757
sale	-10.0759
▁operator	-10.076
▁drives	-10.0773
ey	-10.0795
▁ec	-10.0798
west	-10.0805
▁insured	-10.0814
▁attribute	-10.0825
▁simple	-10.0829
▁cap	-10.083
▁weekly	-10.0834
ation	-10.0856
▁chase	-10.0859
▁ensur	-10.0877
il	-10.089
▁illegal	-10.0893
▁quick	-10.0893
▁pe	-10.0903
▁approve	-10.0905
night	-10.0906
da	-10.0914
▁louis	-10.0915
▁coffee	-10.0916
▁language	-10.0916
▁temporarily	-10.0917
▁membership	-10.0917
▁atlanta	-10.0917
▁governor	-10.0919
▁nobody	-10.0921
▁register	-10.0924
▁shipping	-10.0926
▁fallen	-10.0929
▁easily	-10.0932
▁politicians	-10.0949
▁army	-10.0949
▁rival	-10.095
fic	-10.0955
▁argued	-10.0955
▁happened	-10.0956
▁scienti	-10.0962
▁entered	-10.0978
▁generation	-10.0982
▁circuit	-10.0982
▁answer	-10.0982
▁resignation	-10.0983
▁grain	-10.0989
▁manufacturer	-10.0989
▁publisher	-10.0989
▁matters	-10.1005
▁eye	-10.1021
▁wine	-10.1031
▁equivalent	-10.1045
▁games	-10.1046
owned	-10.1052
▁fred	-10.1066
▁lives	-10.1068
▁rare	-10.1075
zo	-10.1085
▁cd	-10.109
▁card	-10.1095
loss	-10.1104
▁courts	-10.1108
digit	-10.111
▁records	-10.1112
▁branch	-10.1136
▁worse	-10.1139
▁chamber	-10.1143
▁cautious	-10.1143
▁tentative	-10.1144
▁colleagues	-10.1144
▁controversial	-10.1144
▁tower	-10.1147
▁piece	-10.1148
▁setting	-10.1152
▁monitor	-10.1154
▁seasonal	-10.1159
▁nature	-10.1166
▁phel	-10.1168
elerate	-10.1177
▁asia	-10.1177
▁normally	-10.1178
▁covered	-10.118
▁taxpayers	-10.118
▁proceedings	-10.1188
▁factor	-10.1194
▁coup	-10.1195
▁heat	-10.1197
▁pact	-10.1202
▁road	-10.1203
▁student	-10.1214
▁semiconductor	-10.1215
▁reporters	-10.1221
▁damages	-10.1223
▁investing	-10.1257
▁institution	-10.1258
▁intel	-10.1258
▁votes	-10.1267
trading	-10.127
▁lawsuits	-10.1277
▁specialists	-10.1278
ster	-10.1279
▁agents	-10.1293
▁aids	-10.1295
item	-10.1304
▁chip	-10.132
▁prospects	-10.1322
▁costly	-10.1322
▁con	-10.1341
▁acquir	-10.1346
▁fla	-10.1352
▁aggressive	-10.1353
aid	-10.1356
bank	-10.1359
▁hall	-10.1369
▁video	-10.1375
▁reluctan	-10.1376
▁presence	-10.1376
▁outlook	-10.1377
▁editorial	-10.1377
▁technologies	-10.1377
▁extent	-10.1382
▁concept	-10.1383
▁strategies	-10.1383
▁concluded	-10.1387
▁rapidly	-10.1394
▁adopted	-10.1399
▁founder	-10.1406
id	-10.1419
▁van	-10.1424
▁rail	-10.144
▁garden	-10.1452
▁restaurant	-10.1453
▁obligation	-10.1453
▁household	-10.1453
▁corporation	-10.1456
▁views	-10.1462
ies	-10.1483
▁died	-10.1489
▁choice	-10.1495
▁lowered	-10.1497
▁letters	-10.1503
▁agent	-10.1503
▁liv	-10.1504
▁giants	-10.1507
▁fields	-10.1514
▁strip	-10.1524
▁inside	-10.1532
▁fill	-10.1532
tsu	-10.1533
▁ran	-10.1533
ecutive	-10.1547
▁spie	-10.1549
▁agreements	-10.1564
risk	-10.157
way	-10.1571
nnie	-10.1578
▁surprise	-10.1599
▁middle	-10.1612
▁enjoy	-10.1613
▁ogilvy	-10.1613
▁squeeze	-10.1613
▁stearns	-10.1613
▁graphics	-10.1614
▁principle	-10.1614
▁hampshire	-10.1614
▁resistance	-10.1614
▁philadelphia	-10.1614
▁roman	-10.1616
▁integrated	-10.1617
▁specialty	-10.1618
▁committed	-10.162
▁gr	-10.162
▁miller	-10.1621
▁repeated	-10.1624
▁warned	-10.1625
▁permit	-10.1625
▁possibilit	-10.1627
▁slide	-10.1637
▁guaranteed	-10.1643
▁consist	-10.1645
▁ones	-10.1649
▁search	-10.1651
▁metal	-10.1655
▁fresh	-10.1661
▁cold	-10.1665
▁enterprises	-10.1676
▁reporting	-10.1681
port	-10.1692
▁exposure	-10.1695
▁studio	-10.1699
▁crop	-10.171
urged	-10.1713
▁mother	-10.1715
▁poll	-10.1744
▁wa	-10.1765
▁pictures	-10.1789
▁reduc	-10.1821
rence	-10.1828
▁hearings	-10.1833
▁realize	-10.1836
▁mu	-10.1846
▁prison	-10.1851
▁screen	-10.1857
▁enormous	-10.1857
▁christmas	-10.1858
▁circumstances	-10.1858
▁mention	-10.1858
▁employ	-10.1869
▁rico	-10.187
▁pu	-10.1872
▁shipments	-10.1877
▁exclud	-10.188
▁participants	-10.1885
▁extended	-10.1898
▁constitutional	-10.1901
▁kill	-10.1915
rew	-10.1945
▁pipeline	-10.1945
▁commitment	-10.1947
▁looks	-10.1948
▁warning	-10.1951
atlantic	-10.1952
▁career	-10.1961
▁contends	-10.1963
▁lev	-10.1973
▁ha	-10.1976
▁waste	-10.1977
▁privately	-10.1977
▁comfort	-10.1984
▁retailers	-10.1992
technology	-10.1993
▁genes	-10.2002
▁league	-10.2038
▁si	-10.204
▁administrati	-10.2041
▁accuse	-10.2048
▁address	-10.206
▁processing	-10.2067
▁character	-10.2106
▁miami	-10.2106
▁fleet	-10.2107
▁hungary	-10.2107
▁departure	-10.2107
▁football	-10.2107
▁mitchell	-10.2107
▁attitude	-10.2107
▁pittsburgh	-10.2108
▁pennsylvania	-10.2108
▁cooperation	-10.2108
▁banco	-10.2114
▁modern	-10.2115
▁differences	-10.2118
▁faster	-10.2121
▁marsh	-10.2123
▁status	-10.2128
▁culture	-10.2132
▁lang	-10.2135
▁harris	-10.2135
▁license	-10.2136
▁reforms	-10.2136
▁ratio	-10.2138
▁unlikely	-10.2142
▁collapsed	-10.2144
▁lenders	-10.2147
▁default	-10.2163
▁forecasts	-10.218
▁shot	-10.2191
die	-10.2194
▁ties	-10.2202
▁easi	-10.221
purchase	-10.2215
▁users	-10.2217
ious	-10.2227
▁ar	-10.2235
▁ni	-10.2239
▁code	-10.2246
ith	-10.2249
▁cath	-10.2276
▁recover	-10.2294
▁banker	-10.2332
▁limits	-10.2332
bell	-10.2336
▁anticipated	-10.2337
▁slid	-10.2348
▁brook	-10.2355
▁speech	-10.2363
▁douglas	-10.2363
▁currencies	-10.2364
▁widespread	-10.2364
▁commodities	-10.2364
▁inventories	-10.2364
▁unemployment	-10.2364
▁academ	-10.2364
▁otherwise	-10.2367
▁tumbled	-10.2371
▁frequently	-10.2372
▁branches	-10.2373
▁father	-10.2374
▁kemp	-10.2374
▁beach	-10.2376
▁awarded	-10.2386
▁carried	-10.2387
▁grown	-10.24
▁citizens	-10.2404
▁critic	-10.2413
▁carriers	-10.242
ta	-10.2422
▁ruled	-10.2424
▁jeff	-10.2425
rated	-10.2428
▁projection	-10.2437
ir	-10.245
▁cells	-10.2463
▁walter	-10.2465
▁expense	-10.2466
▁coal	-10.2471
erial	-10.2491
▁iran	-10.2498
▁friends	-10.2502
▁impose	-10.2502
etting	-10.2512
▁bob	-10.2522
ated	-10.2522
▁declar	-10.2523
▁commissions	-10.2525
▁heard	-10.2527
largest	-10.2534
▁fashion	-10.2538
▁retailing	-10.2539
▁las	-10.2548
▁calling	-10.2571
▁scott	-10.2592
▁halt	-10.2601
▁published	-10.2603
▁gra	-10.2604
▁link	-10.2615
ical	-10.2616
▁friendly	-10.2617
▁guard	-10.2625
▁brew	-10.2626
▁taiwan	-10.2626
▁peabody	-10.2626
▁veteran	-10.2626
▁bolster	-10.2626
▁progress	-10.2626
▁cellular	-10.2626
▁gasoline	-10.2626
▁suspect	-10.2627
▁unsecured	-10.2627
▁merchandise	-10.2627
▁observers	-10.2627
▁subcommittee	-10.2627
▁disappointing	-10.2627
▁stories	-10.2628
▁attractive	-10.2628
▁slash	-10.2629
▁caught	-10.263
▁carrie	-10.2635
▁organiz	-10.2642
▁rooms	-10.2648
▁democracy	-10.2663
mond	-10.2678
▁expanded	-10.2682
gel	-10.2684
▁badly	-10.2692
▁faced	-10.27
▁contributions	-10.2704
raw	-10.2705
▁employers	-10.2707
▁sets	-10.271
▁gre	-10.2714
▁pilot	-10.2733
pan	-10.2733
▁stein	-10.2739
▁newspapers	-10.2756
ola	-10.2757
▁offerings	-10.276
▁recognize	-10.2774
▁mcdon	-10.2774
▁playing	-10.2784
▁knows	-10.2807
▁draw	-10.2812
▁comments	-10.2821
▁race	-10.2822
dy	-10.2824
▁guy	-10.2825
▁advis	-10.2829
▁filled	-10.2829
▁penn	-10.284
▁hills	-10.2857
▁blood	-10.2861
▁alternatives	-10.2869
▁resume	-10.2874
▁fo	-10.2882
▁nervous	-10.2896
▁tobacco	-10.2896
▁storage	-10.2896
▁maxwell	-10.2896
▁memory	-10.2896
▁identify	-10.2897
▁population	-10.2897
▁impossible	-10.2897
▁allegations	-10.2897
▁steady	-10.2897
▁acceptance	-10.2897
▁sunday	-10.2897
▁yeargin	-10.2898
▁fellow	-10.2899
▁spain	-10.2899
▁applied	-10.2899
▁machinery	-10.2902
▁orange	-10.2903
▁changing	-10.2904
▁assembly	-10.2906
ross	-10.2907
▁handling	-10.2916
▁gap	-10.2924
▁surprised	-10.2924
q	-10.2928
▁beer	-10.2937
king	-10.2959
field	-10.296
▁closer	-10.2991
▁unfair	-10.3007
chip	-10.301
▁channel	-10.3011
▁disk	-10.3012
▁plastic	-10.3012
▁fundamental	-10.3012
▁lawsuit	-10.3013
▁merchant	-10.3013
▁specialist	-10.3014
▁insurer	-10.3016
▁player	-10.3029
▁appointed	-10.3038
▁financier	-10.3042
▁identified	-10.305
hi	-10.3052
law	-10.3067
heim	-10.307
▁worker	-10.3076
▁thin	-10.3103
▁sufficient	-10.3104
▁foods	-10.3105
▁suits	-10.3112
▁boom	-10.312
▁seeks	-10.312
▁site	-10.3123
▁wear	-10.3134
▁franchise	-10.3134
erous	-10.3135
▁recorded	-10.3146
▁widen	-10.3149
▁sudden	-10.315
▁severe	-10.3157
▁introduce	-10.3158
▁eliminate	-10.3167
▁opec	-10.3172
▁pulp	-10.3173
▁zero	-10.3173
▁nixon	-10.3173
▁vietnam	-10.3174
▁hanover	-10.3174
▁thompson	-10.3174
▁honecker	-10.3174
▁liberal	-10.3174
▁permanent	-10.3174
▁elaborate	-10.3174
▁viacom	-10.3174
▁maintenance	-10.3174
▁priority	-10.3174
▁subsidiaries	-10.3174
▁massachusetts	-10.3175
▁downturn	-10.3175
▁eager	-10.3175
▁northeast	-10.3175
▁subsequent	-10.3176
▁profitability	-10.3177
▁switch	-10.3186
▁educational	-10.319
▁barr	-10.3195
▁sole	-10.3195
▁scale	-10.3198
▁afford	-10.32
▁troubles	-10.3203
▁harder	-10.3205
▁pack	-10.3206
▁threatened	-10.3207
▁complained	-10.3209
▁nec	-10.3226
N	-10.3233
▁recalls	-10.3245
ely	-10.3252
▁plead	-10.3259
▁applications	-10.3261
▁hop	-10.327
▁violations	-10.3278
gun	-10.3281
▁num	-10.3292
▁connection	-10.3296
▁purpose	-10.3298
▁message	-10.3299
▁foundation	-10.3299
▁egg	-10.3315
▁reading	-10.3317
▁networks	-10.332
ways	-10.3341
▁wor	-10.3344
▁donald	-10.3346
▁dealing	-10.3361
▁flights	-10.3397
▁enforcement	-10.34
▁counsel	-10.3402
▁greens	-10.3421
▁rapid	-10.3435
▁announce	-10.3436
▁bloc	-10.3437
▁turns	-10.3438
▁delays	-10.3438
▁refund	-10.3441
▁india	-10.3448
▁dead	-10.3449
▁determine	-10.345
▁kkr	-10.3457
▁burden	-10.3459
▁nikkei	-10.3459
▁unveil	-10.3459
▁illinois	-10.3459
▁sluggish	-10.3459
▁consumption	-10.346
▁remic	-10.346
▁compensation	-10.346
▁nationwide	-10.3465
▁divide	-10.3468
▁bott	-10.3473
▁retired	-10.3478
▁consent	-10.3481
▁turner	-10.3489
▁complain	-10.3494
ua	-10.3498
▁stemm	-10.3508
known	-10.3516
▁containers	-10.3517
▁arms	-10.3529
▁shop	-10.3532
▁dai	-10.3537
▁contra	-10.3545
▁aside	-10.3547
▁compete	-10.3551
▁expanding	-10.3554
▁drill	-10.3558
▁represented	-10.3564
▁bu	-10.3574
▁tape	-10.3575
▁fighting	-10.3578
▁dealer	-10.358
▁audit	-10.3588
mer	-10.3589
▁freedom	-10.3591
▁syndicate	-10.3591
▁curb	-10.3595
sides	-10.3617
▁shops	-10.3623
▁admit	-10.3632
▁miss	-10.3635
▁shortly	-10.3641
▁authoriz	-10.3646
▁theater	-10.3652
▁cast	-10.3668
▁operators	-10.3668
▁rivals	-10.3673
▁concentrate	-10.3696
▁react	-10.3697
▁participate	-10.3706
elimina	-10.3712
▁royal	-10.3718
ave	-10.3725
ol	-10.3738
▁ill	-10.3739
▁table	-10.374
▁seat	-10.3745
bache	-10.3747
ark	-10.3748
▁constitution	-10.375
▁ortega	-10.3753
▁husband	-10.3753
▁engelken	-10.3753
▁delmed	-10.3753
▁virginia	-10.3753
▁glass	-10.3753
▁steinhardt	-10.3754
▁bailout	-10.3754
▁reputation	-10.3754
▁bellsouth	-10.3754
▁opportunities	-10.3754
▁winter	-10.3755
▁reinsurance	-10.3755
▁chr	-10.3756
ensive	-10.3756
▁crack	-10.3757
▁turnover	-10.3759
▁probab	-10.3762
▁successor	-10.3765
▁supporters	-10.3765
▁withdrawal	-10.3766
▁alex	-10.3772
▁rat	-10.3779
▁cosmetics	-10.3791
▁catch	-10.3798
▁novel	-10.3805
dale	-10.3812
▁chains	-10.3821
▁engine	-10.3823
ne	-10.3824
▁carl	-10.3853
▁planners	-10.3853
▁schedule	-10.3857
related	-10.3858
▁theory	-10.3869
▁aide	-10.3872
▁grant	-10.3875
▁sex	-10.3877
▁organizations	-10.388
▁holiday	-10.3891
▁warrant	-10.3896
▁experiment	-10.3896
▁portfolios	-10.3899
▁retailer	-10.3915
▁weight	-10.3931
▁train	-10.3937
tv	-10.3939
hour	-10.3953
▁concede	-10.3954
▁heads	-10.3962
reh	-10.3979
▁targets	-10.3979
▁stands	-10.3982
▁bi	-10.3993
niel	-10.401
▁collect	-10.4013
▁rebound	-10.4019
▁becom	-10.402
▁ot	-10.402
▁threaten	-10.4029
▁trans	-10.403
▁efficient	-10.4038
▁exclusive	-10.4038
▁saab	-10.405
etna	-10.405
▁bulk	-10.4055
▁roger	-10.4055
▁turmoil	-10.4056
▁english	-10.4056
▁routine	-10.4056
▁mesa	-10.4056
▁advocate	-10.4056
▁persuade	-10.4056
▁psyllium	-10.4056
▁sensitive	-10.4056
▁baltimore	-10.4056
▁definitive	-10.4056
▁consensus	-10.4056
▁rang	-10.4058
▁berlin	-10.4059
polit	-10.406
▁metro	-10.406
▁sweep	-10.4061
▁somewhat	-10.4063
▁choose	-10.4063
▁charter	-10.4066
▁intense	-10.4068
tle	-10.4068
▁weaker	-10.4072
▁considerable	-10.4073
▁agriculture	-10.4074
▁achieved	-10.4078
▁advice	-10.4078
▁rocke	-10.4081
▁deny	-10.4081
▁box	-10.4096
▁fre	-10.4101
▁korean	-10.4103
▁mik	-10.411
exchange	-10.4117
▁trends	-10.4117
▁stable	-10.412
▁procedures	-10.4133
▁bo	-10.4143
lo	-10.4165
▁expire	-10.4181
▁packages	-10.4187
▁admitt	-10.4205
▁arrangement	-10.4207
▁statements	-10.4207
▁rumor	-10.4207
▁argument	-10.4207
ival	-10.4211
▁display	-10.4211
▁engineers	-10.4211
week	-10.4212
fth	-10.4213
▁aware	-10.4218
aul	-10.4242
▁vi	-10.4262
▁restaurants	-10.4266
▁goals	-10.4308
▁broadcast	-10.4315
▁cheap	-10.4318
▁cran	-10.4318
▁engage	-10.4343
▁di	-10.4351
ke	-10.4352
▁surplus	-10.4359
▁prefer	-10.4367
▁convict	-10.4367
▁davis	-10.4368
▁delta	-10.4368
▁entrepreneur	-10.4368
▁gonzalez	-10.4368
▁regime	-10.4368
▁remember	-10.4368
▁cleveland	-10.4368
▁defensive	-10.4369
▁revolution	-10.4369
▁combination	-10.4369
point	-10.4369
▁donaldson	-10.437
▁earth	-10.437
▁edison	-10.4374
▁marine	-10.4378
▁broken	-10.4381
fund	-10.4382
▁begins	-10.4383
▁victory	-10.4387
fell	-10.4389
▁love	-10.439
▁requir	-10.4391
▁compet	-10.4395
▁behalf	-10.4402
▁friend	-10.4427
ice	-10.443
▁delayed	-10.4434
▁doubled	-10.4437
▁micro	-10.4441
▁gal	-10.4443
body	-10.4445
▁learning	-10.4453
▁spirits	-10.4455
▁hart	-10.4466
mura	-10.447
▁incentives	-10.4481
▁repair	-10.4492
▁mills	-10.4499
dding	-10.4501
round	-10.4506
▁fur	-10.4508
▁dan	-10.4522
thur	-10.4522
▁democrat	-10.4522
▁edition	-10.4525
▁engineer	-10.4531
▁trip	-10.4539
▁eggs	-10.454
▁device	-10.4558
▁borrowing	-10.4564
latin	-10.4569
▁legislati	-10.4579
▁bern	-10.4582
▁bio	-10.4597
tech	-10.4622
▁simp	-10.4636
ately	-10.4639
ather	-10.4649
▁broke	-10.4661
▁triple	-10.4667
▁indian	-10.4673
▁notice	-10.468
▁peace	-10.4683
▁constant	-10.4685
vogel	-10.4685
▁lilly	-10.4686
recapitalization	-10.4689
▁pont	-10.4689
▁confident	-10.469
▁colgate	-10.469
▁poverty	-10.469
▁unfortunate	-10.4691
▁occurred	-10.4692
▁collection	-10.4694
ney	-10.4696
▁island	-10.4697
▁com	-10.4698
▁duty	-10.4701
▁sit	-10.4701
▁reasonable	-10.4707
▁abandoned	-10.4713
▁guide	-10.4715
▁distributed	-10.4717
▁linked	-10.4727
▁midwest	-10.473
▁touch	-10.4733
▁appropriate	-10.4737
rious	-10.4739
▁responded	-10.4741
management	-10.4746
▁allian	-10.4751
▁weapons	-10.4753
▁mart	-10.4753
▁effectively	-10.4761
▁sha	-10.4766
▁fit	-10.4782
▁lease	-10.4786
▁wave	-10.4789
▁manage	-10.4794
▁deaths	-10.4797
▁sellers	-10.4813
▁meant	-10.4813
▁secret	-10.4832
corp	-10.4834
▁enable	-10.4837
▁scenario	-10.486
▁stadium	-10.486
nian	-10.486
▁brain	-10.4861
▁mainframe	-10.4862
▁science	-10.4862
▁senator	-10.4863
free	-10.4863
▁experiments	-10.4865
▁hoped	-10.4869
pack	-10.4871
▁insider	-10.4874
▁purposes	-10.4876
▁specialize	-10.4884
for	-10.4904
▁text	-10.4908
▁writer	-10.4916
▁places	-10.4919
▁answers	-10.4924
▁declare	-10.4951
▁ray	-10.4954
▁casino	-10.4954
▁describ	-10.4964
▁charit	-10.4981
▁demands	-10.4981
▁forms	-10.4987
▁deep	-10.4994
▁achieve	-10.5
▁mobil	-10.5006
▁adopt	-10.5012
▁perform	-10.5012
▁toyota	-10.5018
▁lufkin	-10.5018
▁poison	-10.5018
▁duties	-10.5019
▁henry	-10.5019
▁lift	-10.5019
▁wcrs	-10.502
▁rape	-10.502
▁eased	-10.5023
▁detroit	-10.5023
▁crucial	-10.5024
▁concrete	-10.5024
▁pollution	-10.5024
▁suspension	-10.5024
▁credibility	-10.5024
▁connecticut	-10.5024
▁conversation	-10.5024
▁nevertheless	-10.5024
▁loyalty	-10.5025
▁circulation	-10.5025
▁contact	-10.5025
▁packaging	-10.5026
▁distributor	-10.5026
▁coors	-10.5028
▁favorable	-10.503
▁master	-10.5032
▁weaken	-10.5034
▁sustained	-10.5037
▁sentence	-10.5039
bi	-10.504
▁struggle	-10.5041
▁papers	-10.5049
▁coca	-10.5051
▁solid	-10.5052
▁recommended	-10.5054
▁coke	-10.5055
▁secured	-10.5065
▁christ	-10.5085
▁delivered	-10.5093
▁pressures	-10.5097
▁attribut	-10.5101
▁har	-10.5114
▁page	-10.5119
▁artist	-10.513
▁ru	-10.5145
▁risen	-10.5153
▁assum	-10.5153
▁indicat	-10.516
ci	-10.5161
ch	-10.5162
nt	-10.517
per	-10.5172
▁oppose	-10.5177
▁pho	-10.519
▁basket	-10.5199
aiwa	-10.5199
▁associat	-10.5202
▁assumption	-10.5204
top	-10.5205
▁candidate	-10.5206
▁desk	-10.5207
▁underwriter	-10.5215
ny	-10.5216
▁sheet	-10.5217
▁plastics	-10.5221
uel	-10.5231
▁ordinar	-10.5241
▁testing	-10.5245
▁host	-10.5245
amount	-10.527
ut	-10.528
▁charg	-10.5295
▁copy	-10.5307
bus	-10.5318
▁author	-10.5322
▁caution	-10.5326
▁stretch	-10.5327
▁revenues	-10.5328
▁crowd	-10.533
▁standing	-10.5334
▁strengthen	-10.5335
▁manufacture	-10.5349
▁appro	-10.5358
▁dramatic	-10.536
▁enhance	-10.5363
▁michigan	-10.5363
▁simmons	-10.5363
▁inquiry	-10.5363
▁thomson	-10.5363
▁surround	-10.5363
▁suburb	-10.5363
▁subsidies	-10.5363
▁hahn	-10.5365
▁judicia	-10.5367
▁intent	-10.5369
▁productivity	-10.5369
▁commonwealth	-10.5369
xim	-10.5369
▁cheaper	-10.537
▁permission	-10.5371
▁difficulties	-10.5371
▁unexpected	-10.5371
▁marketplace	-10.5371
▁driving	-10.5375
▁stood	-10.5376
▁gov	-10.5381
▁emerge	-10.5391
▁steelmaker	-10.5396
▁olive	-10.54
▁feeling	-10.5406
▁districts	-10.5408
▁encouraged	-10.5412
▁timing	-10.5415
▁officers	-10.5431
▁rand	-10.5433
ual	-10.5444
rd	-10.5457
invested	-10.5461
comes	-10.5471
▁drew	-10.5474
▁teachers	-10.5476
▁ride	-10.5481
▁prepare	-10.5483
▁premiums	-10.5486
▁quarters	-10.5489
▁discipline	-10.5491
▁fans	-10.5498
▁complaints	-10.5499
erts	-10.5503
ila	-10.5503
ker	-10.5505
▁rank	-10.5519
▁sa	-10.553
▁oversee	-10.553
▁feed	-10.5535
▁ideas	-10.5539
▁dominate	-10.5555
▁automobile	-10.5556
▁swap	-10.5556
▁freeway	-10.5558
▁consideration	-10.5558
▁referr	-10.5559
ity	-10.5562
▁cycle	-10.5562
stein	-10.5569
▁mergers	-10.5596
▁killed	-10.5605
▁governments	-10.5607
▁holder	-10.5625
▁filings	-10.5636
sir	-10.5643
istance	-10.5657
scale	-10.5658
▁slump	-10.5682
▁struggl	-10.5702
▁tight	-10.5706
▁possibl	-10.5711
▁pill	-10.5716
▁gillett	-10.572
▁giuliani	-10.572
▁merksamer	-10.572
▁telegraph	-10.572
▁zealand	-10.572
▁collateral	-10.572
▁gamble	-10.572
▁vegas	-10.572
▁marcos	-10.572
▁kennedy	-10.572
▁appreciation	-10.572
▁maynard	-10.572
▁judgment	-10.572
▁milk	-10.5724
▁conviction	-10.5725
▁refinery	-10.5725
▁dell	-10.5728
▁mips	-10.5729
▁wish	-10.5731
▁welcome	-10.5731
▁promote	-10.5734
ay	-10.574
▁treaty	-10.5747
▁acknowledged	-10.575
▁loose	-10.5751
▁pi	-10.5753
▁aggressively	-10.5756
▁dump	-10.5758
▁allies	-10.5758
coupon	-10.5759
▁stick	-10.5763
▁body	-10.577
▁opponents	-10.5771
ia	-10.5777
▁teams	-10.578
▁legislators	-10.5783
capped	-10.579
▁stone	-10.5795
▁replaced	-10.5804
▁indicators	-10.5807
▁partial	-10.5808
reaching	-10.5819
card	-10.582
der	-10.5822
▁requested	-10.5824
▁emerg	-10.583
▁kids	-10.5835
▁conservatives	-10.5837
▁remarks	-10.5839
▁decades	-10.5853
▁bikes	-10.5858
wood	-10.5864
▁str	-10.5869
▁meaning	-10.587
dropping	-10.5875
▁rush	-10.5879
▁consolidat	-10.588
▁tr	-10.5881
▁mount	-10.5888
▁sciences	-10.5896
▁commissioner	-10.5911
shi	-10.5917
▁deadline	-10.5925
▁technique	-10.5927
▁disease	-10.5928
▁representative	-10.5928
▁resort	-10.593
▁expert	-10.593
▁bike	-10.5939
▁dealings	-10.594
▁farmer	-10.5942
▁steven	-10.5947
▁permitt	-10.595
▁succeeding	-10.5961
go	-10.5965
▁merge	-10.5974
ine	-10.5977
▁consolidate	-10.5987
▁cards	-10.5989
hail	-10.599
▁magn	-10.5994
nson	-10.6
▁checks	-10.6001
▁jacobs	-10.6008
▁jo	-10.601
▁stem	-10.6028
road	-10.6051
▁acts	-10.6057
▁retire	-10.6066
▁load	-10.6072
utch	-10.608
▁restore	-10.6082
▁classic	-10.6086
▁promis	-10.6086
▁remove	-10.6086
donald	-10.6089
▁asbestos	-10.609
▁controversy	-10.609
▁gyrations	-10.609
▁penalties	-10.609
▁receipts	-10.609
▁rescue	-10.609
▁category	-10.609
▁memories	-10.609
▁famous	-10.609
▁penalty	-10.609
▁speculators	-10.609
▁indictment	-10.609
▁medicine	-10.609
▁straight	-10.609
▁bartlett	-10.609
▁disappointed	-10.609
▁visitors	-10.609
▁participation	-10.6091
ado	-10.6091
▁boren	-10.6091
▁knight	-10.6092
▁winning	-10.6092
▁mature	-10.6092
▁programming	-10.6094
▁barney	-10.6096
▁analysis	-10.6097
▁controlling	-10.61
▁showtime	-10.6104
ge	-10.6105
▁rey	-10.6108
▁assess	-10.6109
▁regulation	-10.611
▁anybody	-10.6111
life	-10.6111
▁businessmen	-10.6113
well	-10.6129
▁divisions	-10.6129
ilson	-10.613
▁vary	-10.6141
▁activists	-10.6143
▁entirely	-10.6152
looming	-10.6158
rights	-10.616
▁abortions	-10.6166
onald	-10.6167
▁elder	-10.6169
▁readers	-10.6183
▁lies	-10.6185
▁germans	-10.6186
▁fired	-10.6206
▁publications	-10.6215
▁maintained	-10.6221
▁sons	-10.6236
▁amr	-10.624
▁features	-10.6246
▁contras	-10.625
▁pitch	-10.6251
income	-10.6266
▁jail	-10.6269
▁contend	-10.6278
▁grants	-10.6279
erry	-10.6283
▁ball	-10.6283
▁causes	-10.6288
▁planes	-10.6301
▁apart	-10.6302
▁occur	-10.6307
▁disclosure	-10.631
▁iron	-10.631
▁ticket	-10.6312
▁pattern	-10.6317
▁anticipate	-10.6324
▁tw	-10.6334
ald	-10.6335
▁bri	-10.6336
▁sued	-10.6352
▁cleared	-10.6359
▁plea	-10.6363
▁whites	-10.639
▁creativ	-10.6397
▁el	-10.641
sh	-10.6416
▁findings	-10.6419
ring	-10.6422
▁urg	-10.6426
enz	-10.6427
▁sponsor	-10.6437
▁examine	-10.6438
rice	-10.6447
▁revive	-10.6451
▁leverage	-10.6452
▁economics	-10.6453
▁behavior	-10.6475
▁cincinnati	-10.6475
▁colombia	-10.6475
▁jenrette	-10.6475
▁minneapolis	-10.6475
▁nonetheless	-10.6475
▁petrochemical	-10.6475
▁seidman	-10.6475
▁sentiment	-10.6475
▁copies	-10.6475
▁texaco	-10.6475
▁optimistic	-10.6475
▁rallied	-10.6475
▁gnp	-10.6475
▁transport	-10.6475
▁alaska	-10.6475
▁iowa	-10.6475
▁warren	-10.6475
▁charities	-10.6475
▁cotton	-10.6475
▁false	-10.6475
▁acres	-10.6476
▁outlets	-10.6476
▁knew	-10.6477
▁shape	-10.6477
▁respect	-10.6479
▁danger	-10.6482
▁outcome	-10.6482
▁russian	-10.6482
▁fbi	-10.6486
▁fda	-10.6487
▁avenue	-10.6488
▁conner	-10.649
▁foreigners	-10.6495
more	-10.6496
▁resolved	-10.6497
▁slower	-10.6505
▁classes	-10.6506
▁writing	-10.6508
ra	-10.6516
how	-10.6523
▁unsuccessful	-10.6524
▁busy	-10.6525
america	-10.6526
▁promises	-10.6527
▁realized	-10.6529
▁freight	-10.653
▁appe	-10.653
▁recovered	-10.6531
▁emphasis	-10.6537
▁accompan	-10.6549
▁attracted	-10.6561
▁wood	-10.6563
▁discussed	-10.6568
▁mal	-10.6576
▁nas	-10.658
▁courter	-10.658
fred	-10.6581
▁remov	-10.6589
men	-10.6606
▁featur	-10.6627
rey	-10.6635
▁breaking	-10.6646
nix	-10.6653
▁owed	-10.6668
bread	-10.6678
▁polls	-10.6683
▁sweet	-10.6693
▁edge	-10.6696
gary	-10.6699
ley	-10.6703
▁comparison	-10.671
products	-10.6712
ize	-10.6712
▁airport	-10.6714
▁tand	-10.6718
▁sta	-10.6729
▁tire	-10.6758
▁falls	-10.676
▁investigat	-10.676
ie	-10.6761
air	-10.6768
where	-10.6769
▁contractor	-10.6779
nce	-10.6783
▁happens	-10.6789
gotten	-10.6807
▁desir	-10.6825
tric	-10.6838
▁treat	-10.6854
▁row	-10.6855
▁capit	-10.6855
▁slight	-10.6867
▁thinking	-10.6868
east	-10.6872
▁bethlehem	-10.6875
▁kellogg	-10.6875
▁malaysia	-10.6875
▁overhaul	-10.6875
▁recognition	-10.6875
▁tennessee	-10.6875
▁multiple	-10.6875
▁sanctions	-10.6875
▁perspective	-10.6875
▁economies	-10.6876
▁cattle	-10.6876
▁submitted	-10.6876
▁factories	-10.6877
▁stability	-10.6877
▁reveal	-10.6877
▁quebecor	-10.6877
▁iii	-10.6877
▁apparel	-10.6878
▁downtown	-10.6878
▁travelers	-10.6879
▁favorite	-10.688
▁contest	-10.6886
▁weather	-10.6891
▁cool	-10.6891
▁negotiated	-10.6892
▁somebody	-10.6893
ough	-10.6893
proved	-10.6893
▁canceled	-10.6895
▁compound	-10.69
▁lire	-10.6902
soph	-10.6918
senate	-10.692
▁printing	-10.6922
▁resident	-10.6924
▁reductions	-10.6928
▁violate	-10.6932
presented	-10.6933
▁eliminated	-10.6941
▁fiat	-10.6944
▁missing	-10.6947
▁obtained	-10.696
ur	-10.6965
▁assumed	-10.6972
▁philippines	-10.6973
▁bidders	-10.6973
▁aspects	-10.6976
▁mil	-10.6993
▁mill	-10.7002
▁scores	-10.7002
▁frankl	-10.7002
▁bare	-10.7007
▁phase	-10.701
▁tools	-10.701
▁difficulty	-10.702
▁leaves	-10.7022
▁accus	-10.7023
na	-10.7029
▁acknowledge	-10.7034
▁financially	-10.7062
▁mainframes	-10.7074
▁recommend	-10.7081
▁rica	-10.7086
▁republic	-10.7093
▁pounds	-10.7113
▁characters	-10.7116
▁stepp	-10.7118
ore	-10.7123
▁developments	-10.7126
▁rothschild	-10.7127
▁degree	-10.7128
▁pool	-10.7136
▁illustrate	-10.7146
▁leads	-10.7155
▁fle	-10.7156
▁solution	-10.7157
▁casualty	-10.716
business	-10.7172
▁pour	-10.7179
▁corr	-10.7197
▁complaint	-10.7203
▁lists	-10.7205
▁argues	-10.7212
allen	-10.7226
▁hospitals	-10.7241
▁cell	-10.7242
▁pump	-10.7244
▁credits	-10.7246
▁publish	-10.7252
▁correct	-10.7265
▁pop	-10.7267
▁resolve	-10.7268
▁ships	-10.7272
dom	-10.7276
am	-10.7277
▁port	-10.7279
▁impos	-10.7282
▁interpret	-10.7291
▁absorb	-10.7291
▁laboratories	-10.7291
▁lebanon	-10.7291
▁negotiable	-10.7291
▁satellite	-10.7291
▁taylor	-10.7291
▁escape	-10.7291
▁climate	-10.7291
▁temple	-10.7291
▁tiger	-10.7291
▁harvard	-10.7292
▁ariz	-10.7292
▁importance	-10.7292
▁lobbyist	-10.7292
▁wpp	-10.7292
▁donations	-10.7292
▁peak	-10.7293
▁terrorism	-10.7293
▁dennis	-10.7293
▁struck	-10.7293
▁bitter	-10.7293
▁electricity	-10.7294
▁baby	-10.7295
▁wolf	-10.7299
▁happy	-10.7299
▁che	-10.7313
▁plaintiffs	-10.7317
proportion	-10.7319
▁borrowed	-10.7322
▁roy	-10.7325
▁suddenly	-10.7326
▁subscribers	-10.7331
▁ringers	-10.7332
▁bull	-10.7333
▁consequences	-10.7338
▁rebels	-10.7344
▁gray	-10.7348
vision	-10.7349
▁advised	-10.736
▁accident	-10.7373
▁taxable	-10.7373
▁seriously	-10.7381
▁refuse	-10.7392
▁fee	-10.7393
▁monitoring	-10.7395
▁weigh	-10.7405
▁located	-10.7407
iled	-10.7412
▁powers	-10.7415
▁slowed	-10.7432
▁count	-10.7433
yama	-10.7436
▁son	-10.7439
▁adjustments	-10.7443
▁doctors	-10.7443
specified	-10.7443
financing	-10.748
▁breaker	-10.7498
arco	-10.7507
ant	-10.7524
reduction	-10.7527
▁attend	-10.7527
▁abuse	-10.7546
▁cia	-10.7548
set	-10.755
thetic	-10.7552
▁legislature	-10.7558
bbed	-10.7562
▁scheme	-10.7562
▁neighborhood	-10.7563
▁scene	-10.7564
▁violation	-10.7566
▁flag	-10.7567
▁supplier	-10.7568
▁studying	-10.7568
lecommunications	-10.7571
▁prosecutor	-10.7573
▁aides	-10.7576
▁receiv	-10.7582
▁eyes	-10.7597
▁pieces	-10.7599
ese	-10.7599
ified	-10.7625
▁plays	-10.7625
cious	-10.7626
▁pharmaceuticals	-10.7646
▁socialis	-10.7647
sys	-10.765
▁unions	-10.765
▁whit	-10.7659
runs	-10.767
ying	-10.767
outs	-10.7675
▁instrument	-10.768
ad	-10.7685
▁install	-10.769
▁finish	-10.7697
nty	-10.7699
▁reject	-10.77
ahn	-10.77
▁mix	-10.7702
▁proc	-10.7707
ex	-10.7708
▁adequate	-10.7715
▁diplomat	-10.7726
▁injuries	-10.7726
▁missouri	-10.7726
▁testimony	-10.7726
▁turkey	-10.7726
▁klein	-10.7726
▁expiration	-10.7726
▁diversified	-10.7726
▁vermont	-10.7726
▁stuff	-10.7726
▁uncertain	-10.7726
▁turnaround	-10.7726
▁hardware	-10.7727
▁dangerous	-10.7727
▁reopen	-10.7727
▁assessment	-10.7727
▁evans	-10.7728
▁considerably	-10.7728
▁prince	-10.7728
▁witter	-10.7729
▁spill	-10.7731
▁plummeted	-10.7732
▁respectively	-10.7733
▁inventory	-10.7733
▁blow	-10.7733
▁premier	-10.7733
▁camera	-10.7735
▁stockholders	-10.7737
▁clinic	-10.7737
▁depressed	-10.7737
▁chosen	-10.7737
▁consistently	-10.7741
▁segments	-10.7742
side	-10.7751
ide	-10.7763
▁engag	-10.7763
ably	-10.7768
▁knowledge	-10.777
▁improvements	-10.7778
▁ple	-10.7783
▁angel	-10.7795
▁deriv	-10.7798
▁combine	-10.7798
▁modestly	-10.7799
▁dynamics	-10.7804
tion	-10.7807
vin	-10.7817
▁disasters	-10.7818
▁valu	-10.7819
▁distribute	-10.7822
▁converted	-10.7831
▁barriers	-10.784
▁designer	-10.7846
▁cigarettes	-10.7855
▁asks	-10.7857
▁approached	-10.7858
▁christie	-10.7867
pc	-10.7868
▁partnerships	-10.7888
▁marginal	-10.7903
▁convince	-10.7908
▁feature	-10.7911
▁wages	-10.7918
edged	-10.7921
bol	-10.7927
▁extensi	-10.7947
▁sym	-10.7947
▁expires	-10.7958
▁barrel	-10.7963
▁moral	-10.7964
tiny	-10.7964
▁lo	-10.7966
down	-10.7975
viewed	-10.7977
ety	-10.798
▁strict	-10.7982
▁risky	-10.7983
bc	-10.8001
nish	-10.8003
▁eliminat	-10.8009
erto	-10.8014
▁covers	-10.8016
la	-10.8017
▁incentive	-10.8018
▁window	-10.8018
▁doctor	-10.8019
▁adjustment	-10.802
▁label	-10.8023
▁fined	-10.8024
ky	-10.8029
▁appointment	-10.8031
▁urge	-10.8039
▁jet	-10.8045
choice	-10.8052
▁exercis	-10.8056
▁pursu	-10.8057
▁oust	-10.8062
▁exception	-10.8069
▁mines	-10.807
▁male	-10.8081
▁rain	-10.8087
▁wright	-10.8091
rance	-10.8093
▁seed	-10.8096
▁takeovers	-10.8104
▁explains	-10.8106
▁manages	-10.8106
standing	-10.8115
▁anc	-10.8124
▁knock	-10.8136
▁professionals	-10.814
boys	-10.8146
▁structures	-10.8156
▁restructure	-10.8159
▁forward	-10.8167
▁loyal	-10.818
▁carpenter	-10.8181
▁chevron	-10.8181
▁compliance	-10.8181
▁conglomerate	-10.8181
▁conspiracy	-10.8181
▁diluted	-10.8181
▁flexibility	-10.8181
▁florio	-10.8181
▁injured	-10.8181
▁kodak	-10.8181
▁lackluster	-10.8181
▁racketeering	-10.8181
▁brussels	-10.8181
▁pencil	-10.8181
▁independence	-10.8181
▁length	-10.8181
▁smoking	-10.8181
▁cocoa	-10.8181
▁introduction	-10.8181
▁respondents	-10.8181
▁laboratory	-10.8181
▁kenne	-10.8181
▁seoul	-10.8181
▁hooker	-10.8182
▁prevail	-10.8183
▁produces	-10.8183
▁terminal	-10.8183
▁imf	-10.8184
▁banned	-10.8185
▁fargo	-10.8186
▁complicated	-10.8187
▁reality	-10.8189
▁nearby	-10.8189
▁federation	-10.8189
▁dismissed	-10.8192
▁hiring	-10.8192
▁pleased	-10.8194
▁crimes	-10.8199
▁var	-10.8202
vest	-10.8215
▁arab	-10.8216
▁precise	-10.8216
▁operational	-10.8217
▁attempts	-10.8222
▁dor	-10.8222
▁trail	-10.8224
▁implications	-10.8224
▁path	-10.8229
▁allied	-10.8229
▁moon	-10.8244
▁bridges	-10.8245
▁cru	-10.8245
ston	-10.8247
▁banc	-10.8254
▁motion	-10.8256
▁committees	-10.8256
▁posts	-10.826
▁prohibit	-10.8263
half	-10.8269
▁roberts	-10.8273
▁slowly	-10.8276
▁performed	-10.8288
▁lung	-10.8307
▁plane	-10.8321
▁allows	-10.8332
▁eag	-10.8335
tting	-10.8344
▁mi	-10.8349
▁kh	-10.8356
▁solutions	-10.8359
▁pit	-10.8369
▁contractors	-10.837
▁concedes	-10.8375
lane	-10.8383
continued	-10.8385
▁exporter	-10.8393
▁bells	-10.8397
▁mini	-10.8398
▁hedge	-10.8402
▁inner	-10.8409
▁discounting	-10.8419
mission	-10.8431
kel	-10.8433
dge	-10.8436
▁architect	-10.8447
▁franc	-10.8449
growing	-10.8473
▁sectors	-10.8478
audi	-10.8485
▁te	-10.8487
▁redemption	-10.8489
▁newsletter	-10.849
▁billing	-10.8492
▁mistake	-10.8493
▁competitor	-10.8494
▁interesting	-10.8494
cing	-10.85
▁planner	-10.8502
▁apartment	-10.8507
▁remark	-10.8511
▁shortage	-10.8513
▁streets	-10.8527
▁worrie	-10.8531
▁intention	-10.8533
ached	-10.8534
tile	-10.8538
▁stakes	-10.8543
logic	-10.8548
each	-10.8555
▁affiliates	-10.8568
ible	-10.8578
▁killing	-10.8593
▁easing	-10.8596
ick	-10.8602
▁departments	-10.8602
ha	-10.8605
▁southwest	-10.8606
▁insists	-10.8606
▁murder	-10.8621
▁fin	-10.8635
▁reinforce	-10.8637
cent	-10.8641
▁steve	-10.8645
▁survive	-10.8646
▁bottle	-10.8647
are	-10.8648
▁secure	-10.8652
viation	-10.8656
▁span	-10.8657
▁aftermath	-10.8657
▁berkeley	-10.8657
▁cfcs	-10.8657
▁exchequer	-10.8657
▁ingersoll	-10.8657
▁injunction	-10.8657
▁jurors	-10.8657
▁renaissance	-10.8657
▁sacramento	-10.8657
▁equities	-10.8657
▁coalition	-10.8657
▁reliance	-10.8657
▁robust	-10.8657
▁trump	-10.8657
▁conversion	-10.8657
▁katz	-10.8657
▁treasurer	-10.8657
▁spinoff	-10.8657
▁desperate	-10.8657
▁province	-10.8658
▁completion	-10.8658
▁bearish	-10.8658
▁angry	-10.8659
▁hudson	-10.8659
▁honda	-10.8659
▁fat	-10.8659
▁foster	-10.8659
▁salary	-10.866
▁cleanup	-10.866
▁extension	-10.8663
▁photo	-10.8664
▁viewers	-10.8666
▁incident	-10.8667
▁feb	-10.8669
▁lotus	-10.867
▁skills	-10.8671
▁anyway	-10.8672
▁panic	-10.8673
▁marketer	-10.8675
▁wars	-10.8676
▁bias	-10.8677
▁streamlin	-10.868
▁vic	-10.8683
▁clearing	-10.8691
▁installed	-10.8699
▁fiber	-10.8717
▁troops	-10.8718
▁goodson	-10.8728
▁weakening	-10.873
▁mandat	-10.8734
▁components	-10.8735
▁su	-10.8739
ichi	-10.8746
ligible	-10.8748
ca	-10.8751
▁commute	-10.8756
▁versions	-10.8763
vast	-10.8771
▁notion	-10.878
lity	-10.8781
▁tool	-10.8784
▁born	-10.8784
▁rid	-10.8785
▁happening	-10.8791
▁wind	-10.8798
▁upward	-10.88
▁user	-10.8819
ury	-10.8822
merged	-10.8825
▁tho	-10.8828
street	-10.8829
dollar	-10.8831
▁suppliers	-10.8838
▁swed	-10.8844
aware	-10.8849
▁marin	-10.8854
fill	-10.8857
▁hits	-10.8871
▁finds	-10.8881
services	-10.8882
▁rese	-10.8886
▁baskets	-10.8889
fe	-10.8898
▁ac	-10.8908
▁financed	-10.8909
▁practical	-10.8925
▁licenses	-10.8953
▁bates	-10.8955
ash	-10.8961
▁counter	-10.8961
▁sub	-10.8969
▁prepar	-10.8977
rud	-10.8992
▁horse	-10.8993
▁tourist	-10.8995
▁usa	-10.8995
▁execution	-10.8997
yse	-10.9
▁setback	-10.9
▁teacher	-10.9001
▁publication	-10.9003
▁publishers	-10.9007
▁strategist	-10.9007
op	-10.9012
tributed	-10.9012
▁fare	-10.9023
▁roads	-10.9025
▁promotions	-10.9026
▁experienc	-10.9033
▁ounces	-10.9034
▁necessar	-10.9037
probe	-10.9046
▁sp	-10.9049
▁kid	-10.9058
▁borrow	-10.9061
istic	-10.9063
ys	-10.9063
▁relationships	-10.9072
▁counts	-10.9074
▁assist	-10.9079
▁announc	-10.9082
▁boss	-10.9082
▁attacks	-10.9096
▁victor	-10.9097
▁destroy	-10.912
▁agricultur	-10.9128
▁lend	-10.9131
▁hi	-10.9132
▁speculate	-10.9139
▁pin	-10.9141
▁multi	-10.9157
▁concessions	-10.9157
▁discretion	-10.9157
▁discrimination	-10.9157
▁efficiency	-10.9157
▁empire	-10.9157
▁intellectual	-10.9157
▁liabilities	-10.9157
▁mississippi	-10.9157
▁nabisco	-10.9157
▁netherlands	-10.9157
▁sullivan	-10.9157
▁vulnerable	-10.9157
▁wisconsin	-10.9157
▁communities	-10.9157
▁fierce	-10.9157
▁formula	-10.9157
▁museum	-10.9157
▁utah	-10.9157
▁semel	-10.9157
▁wedtech	-10.9157
▁warsaw	-10.9157
▁calculations	-10.9157
▁louisville	-10.9157
▁medium	-10.9157
▁connaught	-10.9157
▁chunk	-10.9157
▁bullish	-10.9157
▁geneva	-10.9157
▁swift	-10.9157
▁athletic	-10.9158
▁stolen	-10.9158
▁disney	-10.9158
▁rejection	-10.9158
▁entry	-10.9159
responsibilities	-10.9159
▁honor	-10.9159
▁jackson	-10.916
▁maturing	-10.916
▁truth	-10.916
▁healthcare	-10.9164
▁tvs	-10.9164
▁staffers	-10.9165
▁seller	-10.9165
▁bonuses	-10.9165
fusion	-10.9165
▁encouraging	-10.9168
sui	-10.9168
▁demonstrate	-10.9169
ending	-10.917
▁homeless	-10.9171
▁print	-10.9172
solut	-10.9173
▁carefully	-10.9176
▁creation	-10.9177
rative	-10.9177
▁luc	-10.9177
▁barre	-10.9186
▁congressman	-10.9196
▁wash	-10.9198
bert	-10.9199
▁investigators	-10.9213
▁expenditures	-10.9213
▁williams	-10.9222
▁wheat	-10.9226
▁bases	-10.9226
▁merit	-10.923
▁incest	-10.9242
▁rig	-10.9243
▁regarded	-10.9245
wich	-10.9253
▁globe	-10.9254
▁explained	-10.9255
▁belong	-10.9257
▁explor	-10.9261
▁steal	-10.9264
▁packaged	-10.927
▁sport	-10.9274
▁fortune	-10.9274
▁tone	-10.9274
▁dominan	-10.9282
▁jay	-10.9283
▁corner	-10.9289
▁tva	-10.9312
▁animals	-10.9314
▁tourists	-10.9322
▁probe	-10.933
ss	-10.9341
heft	-10.9343
▁joe	-10.9346
▁catastrophe	-10.9358
drive	-10.936
ric	-10.9364
▁regain	-10.937
▁resorts	-10.938
▁minute	-10.9383
ered	-10.9395
ell	-10.9396
▁walls	-10.9403
▁arguments	-10.9424
oft	-10.9428
rn	-10.945
▁score	-10.9454
▁stance	-10.9455
▁bargain	-10.9456
▁convinc	-10.9466
▁mor	-10.9478
▁ministers	-10.9484
▁bass	-10.9496
fore	-10.9502
▁promot	-10.9504
▁propose	-10.9506
▁dream	-10.9517
rolled	-10.9518
▁conflict	-10.9519
▁passenger	-10.9519
▁thousand	-10.9519
▁victim	-10.952
▁animal	-10.952
▁application	-10.952
october	-10.9521
▁brother	-10.9522
▁rely	-10.9523
ations	-10.9534
▁employer	-10.9543
▁sand	-10.9544
▁dun	-10.9546
▁kinds	-10.9563
lph	-10.9565
▁refin	-10.9568
▁rent	-10.9574
▁rebuild	-10.9587
▁swell	-10.9591
exempt	-10.9598
▁advanc	-10.96
▁grounds	-10.9603
referred	-10.9608
▁exempt	-10.9614
ela	-10.9623
▁underwrit	-10.9638
▁don	-10.9647
▁abandon	-10.9647
quality	-10.9651
▁ends	-10.9652
▁decid	-10.9655
▁logic	-10.9656
sector	-10.9657
▁surface	-10.9659
▁reverse	-10.9659
▁ignore	-10.9659
▁reporter	-10.9661
▁budgets	-10.9665
▁bonus	-10.9676
▁albert	-10.9677
▁colon	-10.9678
raig	-10.9682
▁achenbaum	-10.9683
▁ambitious	-10.9683
▁basketball	-10.9683
▁categories	-10.9683
▁comptroller	-10.9683
▁explanation	-10.9683
▁ignoring	-10.9683
▁lorenzo	-10.9683
▁maidenform	-10.9683
▁merieux	-10.9683
▁pregnant	-10.9683
▁rubicam	-10.9683
▁vigorous	-10.9683
▁hdtv	-10.9683
▁ozone	-10.9683
▁seagram	-10.9683
▁solidarity	-10.9683
▁unprecedented	-10.9683
▁clothing	-10.9683
▁lockheed	-10.9683
▁superior	-10.9683
▁intervention	-10.9683
▁brooklyn	-10.9683
▁coleman	-10.9683
▁examination	-10.9683
▁shipyard	-10.9683
▁visible	-10.9683
▁emotional	-10.9684
▁lunch	-10.9684
▁revco	-10.9684
▁ldp	-10.9685
▁momentum	-10.9685
▁storm	-10.9685
▁richmond	-10.9686
▁striking	-10.9686
▁draft	-10.9688
▁computing	-10.9688
▁comedy	-10.969
▁bright	-10.969
▁serv	-10.9691
▁improving	-10.9692
▁anywhere	-10.9693
▁crew	-10.9696
▁gift	-10.9696
▁kansas	-10.9697
▁arrived	-10.9697
▁unclear	-10.97
▁strongest	-10.9701
▁psychology	-10.9702
▁lots	-10.9703
▁arranged	-10.9705
signed	-10.9709
▁useful	-10.971
▁calculate	-10.971
▁floating	-10.971
▁colony	-10.9715
▁spin	-10.9719
▁spa	-10.9722
▁violated	-10.9731
▁era	-10.9731
▁lifted	-10.9735
▁upham	-10.9739
▁restored	-10.974
▁hy	-10.9742
▁slate	-10.9746
▁fan	-10.9747
minent	-10.9749
▁halted	-10.9749
▁removed	-10.9753
▁capitalist	-10.9756
▁adults	-10.976
▁bever	-10.9765
deau	-10.9768
▁debts	-10.9771
▁cite	-10.9778
▁visited	-10.9781
▁tru	-10.9783
▁franchisees	-10.9784
▁merk	-10.9786
▁routes	-10.9787
▁tanks	-10.9797
▁award	-10.9804
▁broadly	-10.9805
▁deserve	-10.9805
▁nice	-10.9826
cumulati	-10.9828
ntex	-10.983
▁columns	-10.9831
▁ti	-10.9836
▁protests	-10.9841
▁feared	-10.9853
rowe	-10.9859
▁ka	-10.9863
▁hint	-10.987
▁die	-10.9871
▁windows	-10.9876
rican	-10.9887
▁beef	-10.9914
po	-10.9936
▁quit	-10.9941
▁advers	-10.9944
▁stee	-10.9944
▁landing	-10.998
ba	-10.9984
▁pays	-10.9994
▁engines	-11.0005
itting	-11.0012
▁eat	-11.0015
▁articles	-11.0018
itte	-11.0032
▁alto	-11.0044
▁gardens	-11.0054
▁physic	-11.0065
▁neighbor	-11.0069
▁backlog	-11.0071
▁method	-11.0075
▁cigarette	-11.0075
▁mission	-11.0076
▁protest	-11.0076
rolling	-11.0076
icated	-11.0077
mina	-11.0077
▁contribution	-11.008
john	-11.008
▁patient	-11.0088
oody	-11.0112
▁waive	-11.0129
▁evening	-11.0131
ticipation	-11.0136
▁ex	-11.015
▁eli	-11.0151
▁specializ	-11.0152
▁creditor	-11.0157
▁challenges	-11.0162
ork	-11.0167
interest	-11.017
▁diver	-11.0174
▁researcher	-11.0175
▁balloon	-11.0181
▁scrambl	-11.0186
ssive	-11.0193
ural	-11.0196
▁withdraw	-11.0198
▁tracks	-11.0201
▁arrest	-11.0203
▁univers	-11.0207
▁wealth	-11.022
▁proper	-11.0224
▁liquid	-11.0236
▁submit	-11.0237
nomination	-11.0237
▁jewel	-11.0238
▁chevrolet	-11.0239
▁kabul	-11.0239
▁kentucky	-11.0239
▁liquor	-11.0239
▁maturities	-11.0239
▁mortality	-11.0239
▁parallel	-11.0239
▁reebok	-11.0239
▁reynolds	-11.0239
gramm	-11.0239
▁mechani	-11.0239
▁cyclical	-11.0239
▁tourism	-11.0239
▁delicious	-11.0239
▁belief	-11.0239
▁eurocom	-11.0239
▁garcia	-11.0239
▁presidency	-11.0239
▁satisfaction	-11.0239
▁supercomputer	-11.0239
▁shield	-11.0239
▁diego	-11.0239
▁transition	-11.0239
▁desert	-11.0239
▁confusion	-11.0239
▁guilders	-11.0239
▁keating	-11.0239
▁accurate	-11.0239
▁female	-11.024
▁wathen	-11.024
▁summit	-11.024
▁opposite	-11.0241
▁bondholders	-11.0242
▁establishment	-11.0242
▁finland	-11.0242
▁disruption	-11.0242
▁jerry	-11.0242
▁rouge	-11.0242
▁restated	-11.0242
▁skeptical	-11.0243
▁clause	-11.0243
▁meantime	-11.0244
▁agenda	-11.0244
▁painful	-11.0244
▁surgery	-11.0245
▁defined	-11.0245
▁connected	-11.0246
▁repay	-11.0246
▁pork	-11.0249
▁improper	-11.025
achi	-11.025
▁debut	-11.0251
▁participating	-11.0252
fide	-11.0253
▁se	-11.0261
▁siz	-11.0261
▁ignored	-11.0264
▁content	-11.0265
▁hotels	-11.0265
▁shrink	-11.0265
▁idle	-11.0265
▁wors	-11.0266
▁lobbying	-11.0271
▁executed	-11.0273
▁milan	-11.0274
▁deeply	-11.0277
un	-11.028
▁adjusters	-11.0294
▁fault	-11.0294
contra	-11.0296
▁hbo	-11.0296
▁mather	-11.03
▁granted	-11.0303
sky	-11.0306
▁mack	-11.0307
▁rebounded	-11.0307
▁advances	-11.0308
▁ben	-11.0309
tic	-11.0328
▁drivers	-11.0328
▁objectives	-11.0339
▁fled	-11.034
▁emerged	-11.0341
▁sdi	-11.0349
▁suggestions	-11.0349
▁bra	-11.035
▁bus	-11.0351
▁properly	-11.036
rray	-11.0373
▁pledge	-11.0385
tings	-11.0392
▁tuc	-11.0394
▁interviewed	-11.0421
▁suffering	-11.0423
ld	-11.0424
▁ranks	-11.0428
▁roe	-11.0429
▁devote	-11.0451
tti	-11.0453
sence	-11.0458
▁successfully	-11.0465
▁toky	-11.0471
▁tickets	-11.0481
▁definition	-11.0492
lumin	-11.05
▁gla	-11.0501
▁owning	-11.0504
rman	-11.0511
▁sk	-11.0513
▁determin	-11.0514
▁donat	-11.0516
▁tre	-11.0517
icon	-11.052
curred	-11.053
▁strikes	-11.053
▁displays	-11.0531
▁links	-11.0531
derick	-11.0536
eadily	-11.0537
▁cambri	-11.0548
▁covert	-11.055
▁wary	-11.0555
▁afr	-11.057
▁merchants	-11.0572
packa	-11.0572
▁song	-11.0582
▁facts	-11.0583
▁expos	-11.059
owed	-11.0592
▁proceed	-11.0601
▁maine	-11.0613
▁shock	-11.0617
▁disciplin	-11.0619
arily	-11.0628
ist	-11.066
▁perception	-11.0662
▁affair	-11.0663
▁spirit	-11.0664
▁column	-11.0664
▁assurance	-11.0665
▁rider	-11.0671
▁discussion	-11.0673
▁topic	-11.068
▁communication	-11.0684
▁refus	-11.0692
loan	-11.0698
▁lab	-11.07
▁cl	-11.0707
▁lately	-11.0708
▁boards	-11.0729
▁wire	-11.0765
los	-11.0766
▁rosen	-11.0768
ative	-11.0768
sche	-11.0771
▁campaigns	-11.0775
▁leas	-11.0778
▁govern	-11.0786
▁redeem	-11.079
▁societ	-11.0795
▁predicts	-11.0798
held	-11.08
▁decrease	-11.0802
▁negotiate	-11.0805
▁seize	-11.0807
▁historical	-11.0809
rushed	-11.0818
zed	-11.0822
▁witness	-11.0822
▁smoke	-11.0825
plex	-11.0826
▁enforce	-11.0826
▁alcohol	-11.0827
▁apartheid	-11.0827
▁furniture	-11.0827
▁glasnost	-11.0827
▁madison	-11.0827
▁minpeco	-11.0827
▁privatization	-11.0827
▁qualify	-11.0827
▁salaries	-11.0827
▁script	-11.0827
▁stockholm	-11.0827
▁vaccine	-11.0827
▁volokh	-11.0827
▁edelman	-11.0827
▁arkansas	-11.0827
▁simultaneous	-11.0827
▁falcon	-11.0827
▁ocean	-11.0827
▁beneficial	-11.0827
▁wrongdoing	-11.0827
▁violence	-11.0827
▁emissions	-11.0827
▁montreal	-11.0827
▁copyright	-11.0827
▁champion	-11.0827
▁payroll	-11.0827
▁harvest	-11.0827
▁denver	-11.0827
▁combat	-11.0827
▁dingell	-11.0827
▁eurodollar	-11.0828
▁libor	-11.0828
▁occasionally	-11.0828
▁bugs	-11.0828
▁altogether	-11.0828
▁protesters	-11.0828
▁physician	-11.0828
▁popularity	-11.0829
▁clearance	-11.0829
▁mexic	-11.0829
▁stuck	-11.0829
▁regardless	-11.0829
▁consolidation	-11.0829
▁latter	-11.0829
▁excessive	-11.0829
unconstitutional	-11.083
▁shelter	-11.0831
▁oregon	-11.0832
▁pursui	-11.0832
▁interim	-11.0833
▁salespeople	-11.0835
brid	-11.0836
▁publicity	-11.0836
▁atmosphere	-11.0837
▁overcome	-11.0838
vard	-11.0841
▁singer	-11.0842
▁bureaucrat	-11.0843
gged	-11.0847
▁gathering	-11.085
▁tougher	-11.085
▁commod	-11.0851
▁sparked	-11.0854
▁soaring	-11.0859
▁enacted	-11.0861
▁kick	-11.0871
▁alter	-11.0875
▁wider	-11.0881
▁transform	-11.0883
▁films	-11.0886
drawn	-11.0888
▁printer	-11.089
▁losers	-11.0898
ptical	-11.0916
ze	-11.0917
▁apiece	-11.0919
▁anderson	-11.0921
▁legitima	-11.0923
ill	-11.0931
▁winners	-11.0954
▁investigations	-11.096
▁acc	-11.0962
▁tendered	-11.0962
▁functions	-11.0963
peters	-11.0969
▁alive	-11.097
nad	-11.0971
▁recommendations	-11.0974
▁nato	-11.0982
▁cie	-11.0989
▁translate	-11.0993
lson	-11.0997
▁propos	-11.1
get	-11.1002
▁yes	-11.1012
▁passengers	-11.1014
▁reuter	-11.1037
▁lay	-11.104
▁reg	-11.1042
unny	-11.1044
icop	-11.107
▁discounts	-11.1094
▁diseases	-11.1094
▁agreeing	-11.1103
▁insiders	-11.112
▁attempted	-11.1127
line	-11.1127
▁tro	-11.1132
▁sat	-11.1139
long	-11.1148
▁bet	-11.1151
strong	-11.1174
folk	-11.1175
▁fundamentals	-11.1185
ability	-11.1185
than	-11.1185
▁guys	-11.1191
▁writers	-11.1195
▁defaults	-11.1216
bro	-11.1221
ig	-11.1225
▁fares	-11.1229
▁obligations	-11.1244
▁tries	-11.1248
▁recall	-11.1253
▁drink	-11.126
▁stages	-11.1267
cut	-11.127
▁gau	-11.127
▁conclusion	-11.128
▁assassination	-11.1283
▁raider	-11.1285
▁disappointment	-11.1286
▁diamond	-11.1286
▁enterprise	-11.1288
▁preference	-11.1289
▁barrier	-11.1289
etic	-11.1302
▁spurr	-11.1303
▁movements	-11.1305
▁scientist	-11.131
▁lbo	-11.1311
limina	-11.1315
ew	-11.1322
fend	-11.1332
▁saving	-11.1362
▁argu	-11.1398
▁carpet	-11.1401
▁enact	-11.1417
ewis	-11.1421
▁spoke	-11.1423
▁drawing	-11.1433
▁band	-11.1435
▁anth	-11.1435
▁careful	-11.1438
▁cuba	-11.1439
▁shake	-11.144
▁listen	-11.1441
▁automatic	-11.1451
▁anheuser	-11.1452
▁anxiety	-11.1452
▁beneficiaries	-11.1452
▁bourbon	-11.1452
▁catalog	-11.1452
▁chandler	-11.1452
▁dialogue	-11.1452
▁diminished	-11.1452
▁episode	-11.1452
▁filipino	-11.1452
▁grenfell	-11.1452
▁microprocessor	-11.1452
▁minnesota	-11.1452
▁monopol	-11.1452
▁oklahoma	-11.1452
▁phenomenon	-11.1452
▁temblor	-11.1452
▁zurich	-11.1452
▁bureaucracy	-11.1452
▁fruit	-11.1452
▁orleans	-11.1452
▁influential	-11.1452
▁ethics	-11.1452
▁boesky	-11.1452
▁girl	-11.1452
▁integration	-11.1452
▁suisse	-11.1452
▁crunch	-11.1452
▁sleep	-11.1452
▁misleading	-11.1452
▁receivables	-11.1452
▁attendants	-11.1452
▁azoff	-11.1452
▁radiation	-11.1452
▁understood	-11.1452
▁issuance	-11.1452
▁quantities	-11.1452
▁expertise	-11.1452
▁deterioration	-11.1452
▁quotron	-11.1452
mediate	-11.1452
mmun	-11.1452
▁interpublic	-11.1453
▁dinner	-11.1453
▁seattle	-11.1453
▁blank	-11.1453
▁pipe	-11.1453
▁reminde	-11.1454
▁manila	-11.1454
▁tumor	-11.1454
▁evaluation	-11.1454
▁bancorp	-11.1455
▁settling	-11.1455
▁overhead	-11.1455
▁minimal	-11.1455
▁cheating	-11.1456
▁dataproducts	-11.1456
▁yale	-11.1457
▁survival	-11.1457
▁cargo	-11.1457
▁specify	-11.1458
▁steam	-11.1458
▁cease	-11.1458
▁diversify	-11.1459
▁observed	-11.1461
▁witnesses	-11.1461
▁architecture	-11.1462
▁thereafter	-11.1464
▁heading	-11.1464
▁burst	-11.1467
▁taxation	-11.1467
▁preserve	-11.1469
▁anymore	-11.1477
▁historically	-11.1478
▁robertson	-11.1479
▁dark	-11.1484
▁restructured	-11.1487
▁nsc	-11.149
▁keen	-11.149
▁arrested	-11.1493
▁sick	-11.1493
▁warming	-11.1502
▁peterson	-11.1504
▁blocks	-11.151
▁sooner	-11.1512
▁contended	-11.1515
commod	-11.1518
▁illegally	-11.1519
▁instant	-11.1519
▁drinking	-11.152
lone	-11.1522
▁journalists	-11.1522
▁transplants	-11.1523
roche	-11.1527
▁pcs	-11.1528
▁bears	-11.1529
▁actor	-11.1532
▁cup	-11.1534
▁wat	-11.1558
ony	-11.1559
▁businessman	-11.1559
▁stunn	-11.156
▁gates	-11.1573
▁counterparts	-11.1576
▁couples	-11.1581
▁wi	-11.1586
▁earning	-11.16
▁pall	-11.1601
▁naturally	-11.1623
▁counted	-11.1626
tium	-11.1627
oral	-11.1637
▁methods	-11.1641
▁cab	-11.1648
that	-11.1655
hill	-11.1657
▁concentrat	-11.1671
ck	-11.1672
▁neighborhoods	-11.1694
million	-11.1699
ling	-11.1702
▁cope	-11.1702
▁scor	-11.1707
io	-11.1723
▁replac	-11.1728
▁kra	-11.1735
▁dam	-11.1737
▁weis	-11.1737
▁techniques	-11.1737
regulation	-11.1764
eep	-11.1764
▁ira	-11.1772
▁nfl	-11.1783
ax	-11.1784
▁invit	-11.1785
▁border	-11.1785
▁picke	-11.1786
▁designs	-11.1789
▁arrangements	-11.179
▁owe	-11.1813
bridge	-11.1823
abin	-11.1827
▁authors	-11.1828
▁pc	-11.1834
motive	-11.1835
ez	-11.1836
▁tenn	-11.1836
com	-11.1854
▁catastroph	-11.1855
seni	-11.1862
▁crops	-11.1862
▁trim	-11.1863
callable	-11.1868
▁regions	-11.1882
▁solve	-11.1893
ailing	-11.1895
▁pol	-11.19
dor	-11.1905
dicted	-11.1926
▁choices	-11.1939
web	-11.1939
▁patents	-11.1948
▁missile	-11.1954
▁philippine	-11.1955
▁recommendation	-11.1955
▁defendant	-11.1955
▁error	-11.1961
▁requirement	-11.1963
▁indicator	-11.1968
▁bidder	-11.1969
▁aspect	-11.1974
▁shar	-11.1975
▁relie	-11.1976
▁procedure	-11.1979
▁reader	-11.1986
put	-11.1989
▁woo	-11.1996
▁mental	-11.2
▁suitor	-11.2006
▁stra	-11.2008
▁mag	-11.2023
▁leg	-11.2023
▁signals	-11.2026
▁chi	-11.2045
▁communists	-11.2052
▁treasurys	-11.2061
▁flood	-11.2083
▁defeat	-11.2084
▁disagree	-11.2092
▁cultur	-11.2093
▁slip	-11.2094
▁perfect	-11.2095
▁consistent	-11.2098
▁cancel	-11.21
▁moderniz	-11.2103
▁warm	-11.2116
▁photograph	-11.2117
▁agnelli	-11.2119
▁battery	-11.2119
▁bogart	-11.2119
▁cabinet	-11.2119
▁charlotte	-11.2119
▁convenience	-11.2119
▁hawaii	-11.2119
▁helmsley	-11.2119
▁indianapolis	-11.2119
▁inquiries	-11.2119
▁mancuso	-11.2119
▁perestroika	-11.2119
▁persistent	-11.2119
▁philosophy	-11.2119
▁platinum	-11.2119
▁scrutiny	-11.2119
▁accomplish	-11.2119
▁anxious	-11.2119
▁universities	-11.2119
▁inspector	-11.2119
▁infected	-11.2119
▁outcry	-11.2119
▁delegation	-11.2119
▁andersson	-11.2119
▁confrontation	-11.2119
▁imminent	-11.2119
cular	-11.2119
▁columnist	-11.2119
▁shadow	-11.2119
▁ratners	-11.2119
▁glenn	-11.2119
▁guess	-11.2119
▁corruption	-11.2119
▁existence	-11.2119
▁virus	-11.212
▁talent	-11.212
▁whitten	-11.212
▁shippers	-11.2121
▁saks	-11.2121
▁breach	-11.2121
▁ghost	-11.2121
▁automatically	-11.2121
▁justify	-11.2121
▁taste	-11.2121
▁outlays	-11.2121
▁incorrect	-11.2122
▁wellington	-11.2123
▁contel	-11.2123
▁sugarman	-11.2124
▁passage	-11.2124
▁northwest	-11.2125
ibb	-11.2126
▁withdrew	-11.2127
▁pride	-11.2127
▁azt	-11.2128
▁fastest	-11.2128
▁unrelated	-11.2129
▁portray	-11.2129
▁gradually	-11.2129
▁squ	-11.2131
mbass	-11.2132
▁asserted	-11.2132
▁fines	-11.2134
▁drought	-11.2135
▁boyd	-11.2137
fed	-11.2138
ponents	-11.2139
▁flows	-11.214
▁command	-11.214
▁applica	-11.2141
▁detect	-11.2142
▁perfectly	-11.2142
▁jolt	-11.2143
preciation	-11.2145
sident	-11.2146
▁rational	-11.2149
▁strain	-11.215
▁leap	-11.2153
llate	-11.2153
iba	-11.2156
elle	-11.2161
▁downgrade	-11.2162
▁apples	-11.2163
▁seized	-11.2163
▁negotiators	-11.2171
▁expired	-11.2173
ip	-11.2179
▁municipals	-11.2185
▁gol	-11.2186
cc	-11.2194
▁satisfy	-11.2202
▁trees	-11.2205
ppon	-11.2207
▁chose	-11.2211
▁backer	-11.2212
▁demonstrations	-11.2217
▁lock	-11.2227
ocal	-11.2233
▁provi	-11.2233
izz	-11.2234
▁proteins	-11.2237
▁rubles	-11.2239
going	-11.2243
heating	-11.2245
▁fate	-11.2245
▁booming	-11.2253
▁spy	-11.2257
▁tariffs	-11.2263
▁soybeans	-11.2263
▁hopeful	-11.2266
no	-11.2273
▁errors	-11.2283
▁cana	-11.2295
kins	-11.2296
abortion	-11.2301
▁max	-11.2304
▁assurances	-11.2308
▁tip	-11.2311
▁ima	-11.2312
▁dependent	-11.2315
ories	-11.2316
▁writes	-11.232
▁listing	-11.2322
▁passing	-11.2329
▁leon	-11.2335
arbitrage	-11.2339
wis	-11.2339
tends	-11.2341
ville	-11.2342
▁periods	-11.2344
taking	-11.2348
▁avoided	-11.2354
▁structured	-11.2357
▁seeds	-11.2358
uick	-11.2368
▁cat	-11.2371
▁pills	-11.2372
nie	-11.2377
form	-11.2385
▁grows	-11.2389
▁prim	-11.2399
▁indexes	-11.2405
▁stevens	-11.2407
▁ke	-11.2408
▁god	-11.2415
▁personally	-11.2429
adjusted	-11.244
▁sheets	-11.2443
olog	-11.2449
▁gera	-11.2466
▁repairs	-11.2469
cutting	-11.2473
▁tradition	-11.2473
▁islands	-11.2473
▁boy	-11.2481
scribe	-11.2483
▁hang	-11.2488
▁mids	-11.2496
claim	-11.2499
▁sites	-11.2504
definition	-11.2513
▁furs	-11.2514
▁wins	-11.2531
▁accelerat	-11.2541
erra	-11.2568
▁sum	-11.2571
violent	-11.2577
▁quant	-11.258
sen	-11.2582
▁households	-11.2595
ica	-11.2599
▁tri	-11.2626
press	-11.2634
▁doors	-11.2636
▁reward	-11.2655
▁oh	-11.2659
▁inform	-11.266
▁affidavit	-11.2666
▁tasks	-11.2666
▁circle	-11.2667
▁hazard	-11.2667
▁prosecution	-11.2668
▁document	-11.2668
▁function	-11.2669
▁statute	-11.2671
▁administrator	-11.2672
▁devise	-11.268
trial	-11.2696
ome	-11.2704
▁lived	-11.2711
▁reit	-11.2713
▁discourag	-11.2716
awa	-11.2724
▁nich	-11.2726
▁hug	-11.2762
range	-11.2774
mended	-11.2785
▁frequent	-11.281
kin	-11.2811
▁ba	-11.2813
era	-11.2821
▁tim	-11.2821
▁issu	-11.2828
▁banxquote	-11.2833
▁destruction	-11.2833
▁dictator	-11.2833
▁disobedience	-11.2833
▁elizabeth	-11.2833
▁excellent	-11.2833
▁fitzwater	-11.2833
▁flexible	-11.2833
▁forfeiture	-11.2833
▁gambling	-11.2833
▁jewish	-11.2833
▁mcduffie	-11.2833
▁ourselves	-11.2833
▁pepsi	-11.2833
▁politburo	-11.2833
▁predecessor	-11.2833
▁pregnancy	-11.2833
▁symptoms	-11.2833
▁taipei	-11.2833
▁sydney	-11.2833
▁tuition	-11.2833
▁embassy	-11.2833
▁fernand	-11.2833
▁territory	-11.2833
▁snapped	-11.2833
▁insulin	-11.2833
▁clothes	-11.2833
▁priorities	-11.2833
▁recreation	-11.2833
▁vendor	-11.2833
▁supervision	-11.2833
▁tenure	-11.2833
▁regret	-11.2833
▁hypo	-11.2833
▁homeowners	-11.2833
▁entities	-11.2833
▁creek	-11.2833
▁punish	-11.2833
▁roderick	-11.2834
▁interpretation	-11.2834
▁whittle	-11.2834
▁retiring	-11.2834
burgh	-11.2834
▁evident	-11.2835
▁federated	-11.2835
▁execute	-11.2835
▁laff	-11.2835
▁inadequate	-11.2836
▁mtm	-11.2836
▁judiciary	-11.2837
▁mcg	-11.2837
rox	-11.2837
▁funny	-11.2838
▁unspecified	-11.2838
▁buffet	-11.2839
▁socialism	-11.2842
▁drain	-11.2843
▁stoll	-11.2844
▁wilson	-11.2844
▁deeper	-11.2845
▁norton	-11.2846
wa	-11.2851
▁postponed	-11.2852
▁stalled	-11.2855
▁scared	-11.2856
▁acceptable	-11.2857
▁lucky	-11.2857
▁alleges	-11.2857
uine	-11.2861
hills	-11.2862
▁surfaced	-11.2866
cost	-11.2871
▁inches	-11.2871
▁hamp	-11.2881
attered	-11.2884
arry	-11.2885
▁instructions	-11.2887
▁withdrawn	-11.289
▁appearance	-11.2891
org	-11.2896
▁minerals	-11.2901
▁sidelines	-11.2903
▁nam	-11.2904
▁trimm	-11.2907
▁crowded	-11.2911
ception	-11.2924
▁growers	-11.294
ubic	-11.2942
▁disputes	-11.2943
iel	-11.2944
▁buck	-11.2947
▁illu	-11.2952
▁carb	-11.2957
▁dogs	-11.296
▁deductions	-11.2963
vis	-11.2964
▁tea	-11.2964
▁warns	-11.2967
▁wil	-11.2969
▁soup	-11.2971
▁dragg	-11.2977
▁flaw	-11.2981
▁doubl	-11.2984
▁nig	-11.2986
▁issuers	-11.2995
▁tour	-11.3001
▁breaks	-11.3011
ner	-11.3014
▁slipping	-11.3014
▁quotas	-11.3049
stol	-11.3051
▁spur	-11.3059
lure	-11.306
ander	-11.3062
▁hole	-11.3065
▁mer	-11.3081
▁indexing	-11.3097
▁lowe	-11.3099
▁interviews	-11.3102
ap	-11.3118
ru	-11.3122
canada	-11.3129
▁appealed	-11.3134
array	-11.3136
▁patterns	-11.3148
▁artists	-11.3155
▁recogniz	-11.3171
▁br	-11.3179
ech	-11.3191
lin	-11.3196
▁mounted	-11.3209
▁gear	-11.3214
▁bur	-11.3223
cine	-11.3233
▁dated	-11.3241
▁beta	-11.3261
▁quota	-11.3276
nal	-11.3285
ugai	-11.3296
▁restor	-11.3301
ase	-11.3303
its	-11.3304
▁dress	-11.3308
▁jon	-11.3308
mill	-11.3318
ise	-11.3327
▁edt	-11.3353
▁rice	-11.3357
town	-11.3358
▁eating	-11.3382
▁tank	-11.3382
▁subjects	-11.3393
dden	-11.3396
▁reactions	-11.3397
xe	-11.3402
ride	-11.3403
▁jeffer	-11.341
▁conclude	-11.3412
▁frustrat	-11.3414
▁spots	-11.3416
▁background	-11.3429
▁privilege	-11.3431
▁supermarket	-11.3432
▁hispanic	-11.3433
▁cooperative	-11.3436
▁daughter	-11.3436
▁soybean	-11.3437
▁tariff	-11.3437
▁statistic	-11.3439
▁element	-11.3439
▁farms	-11.344
▁duck	-11.3444
▁publishe	-11.3447
▁winner	-11.3447
▁exc	-11.3449
▁painting	-11.345
zation	-11.345
building	-11.3452
▁advantages	-11.3467
▁transfers	-11.3469
orn	-11.3478
▁shared	-11.3496
et	-11.3497
▁voices	-11.3512
▁fujis	-11.3518
▁generat	-11.3519
▁challeng	-11.3524
▁gate	-11.3537
▁ballot	-11.3543
▁recruit	-11.3545
▁calculat	-11.3565
▁reache	-11.357
▁spark	-11.3571
▁stabilize	-11.3577
▁smooth	-11.3579
▁tumble	-11.3579
▁drag	-11.3581
▁ranges	-11.3586
ts	-11.359
▁aftershocks	-11.3602
▁amsterdam	-11.3602
▁appliances	-11.3602
▁barbara	-11.3602
▁beautiful	-11.3602
▁caribbean	-11.3602
▁cholesterol	-11.3602
▁diabetics	-11.3602
▁discrepancies	-11.3602
▁gallery	-11.3602
▁henderson	-11.3602
▁integrity	-11.3602
▁kohl	-11.3602
▁kronor	-11.3602
▁landscape	-11.3602
▁massacre	-11.3602
▁murphy	-11.3602
▁polaroid	-11.3602
▁renault	-11.3602
▁meridian	-11.3602
▁peasant	-11.3602
▁petrie	-11.3602
▁supplement	-11.3602
▁rubber	-11.3602
▁stiff	-11.3602
▁felony	-11.3602
▁underscore	-11.3602
kicki	-11.3602
▁robot	-11.3602
▁flagship	-11.3602
▁substance	-11.3602
▁bofors	-11.3602
▁calgary	-11.3602
▁exterior	-11.3602
▁classroom	-11.3602
▁impressive	-11.3603
▁unnecessary	-11.3603
▁arabia	-11.3603
▁liquidation	-11.3603
▁valid	-11.3603
▁drama	-11.3603
▁courtroom	-11.3604
▁depression	-11.3604
▁crusade	-11.3604
▁irving	-11.3604
▁newsprint	-11.3604
▁borrowers	-11.3604
▁toxin	-11.3604
▁breath	-11.3605
▁teach	-11.3606
▁accumulat	-11.3606
▁root	-11.3606
▁schwar	-11.3606
▁sweden	-11.3607
▁moore	-11.3607
▁defects	-11.3607
▁capel	-11.3608
▁burger	-11.3608
▁omitted	-11.3608
▁circus	-11.3609
▁allocation	-11.361
▁endorse	-11.3613
▁offensive	-11.3614
▁swing	-11.3614
▁tactics	-11.3614
▁builders	-11.3616
▁evaluate	-11.3616
▁alert	-11.3617
▁plate	-11.3617
▁walker	-11.3621
▁entity	-11.3623
▁alberta	-11.3624
▁notified	-11.3624
▁regulated	-11.3633
▁shoes	-11.3636
▁delegate	-11.3638
▁indiana	-11.364
fluor	-11.3641
▁viable	-11.3642
▁exclude	-11.3646
▁harm	-11.365
▁fishing	-11.365
▁bushel	-11.365
▁predictions	-11.3651
▁utili	-11.3653
denominat	-11.3653
▁bounce	-11.3653
▁restraint	-11.3655
▁salesmen	-11.3656
▁comic	-11.366
ister	-11.3665
▁printed	-11.3665
temporary	-11.3666
▁ideal	-11.3668
▁quebec	-11.367
▁distinct	-11.3671
investment	-11.3676
▁proof	-11.3677
▁memo	-11.3678
ox	-11.3678
▁bron	-11.3686
▁strengthened	-11.3686
▁superconductors	-11.369
▁workstations	-11.3691
but	-11.3692
▁tissue	-11.3697
▁overtime	-11.3702
▁missed	-11.3718
▁cos	-11.3722
native	-11.3726
▁relat	-11.3735
▁helm	-11.3751
▁lion	-11.3753
systems	-11.376
▁measur	-11.3762
▁deck	-11.3762
▁blam	-11.3766
▁laure	-11.3767
epa	-11.3775
▁rewards	-11.3785
ov	-11.379
▁exercised	-11.3795
▁pale	-11.3799
▁theft	-11.3817
▁boys	-11.3818
zen	-11.3831
▁youth	-11.3833
lever	-11.3836
▁est	-11.3845
ake	-11.3849
▁object	-11.3849
▁conflicts	-11.3851
rys	-11.3851
fluent	-11.3854
▁gut	-11.3859
▁casting	-11.3861
ensus	-11.3864
win	-11.3867
▁vans	-11.387
part	-11.387
▁discounted	-11.3872
▁prevented	-11.3874
▁lesson	-11.3886
▁springs	-11.3889
nl	-11.3889
ceived	-11.3892
priced	-11.3894
▁sight	-11.3896
▁dist	-11.3899
▁recording	-11.3921
▁aims	-11.3922
arman	-11.3927
ington	-11.3936
aught	-11.3942
tz	-11.3944
▁investigate	-11.3949
isch	-11.3951
orough	-11.3957
▁actors	-11.3971
▁waves	-11.3973
▁deter	-11.3974
▁rises	-11.3977
▁brun	-11.3979
stems	-11.3987
▁roadway	-11.3992
nd	-11.3993
▁carbon	-11.3996
▁responses	-11.3999
ak	-11.4004
istration	-11.4004
wer	-11.401
▁borrowings	-11.4012
▁sessions	-11.4034
▁tables	-11.4039
hink	-11.4042
▁nurs	-11.4052
▁explo	-11.406
▁payout	-11.4063
▁enabl	-11.4068
▁theme	-11.4072
▁complains	-11.4077
▁anger	-11.4082
▁gro	-11.4084
nvironmentalists	-11.4116
zz	-11.4128
▁ja	-11.414
nathan	-11.4142
▁invite	-11.4145
▁warnings	-11.416
pointed	-11.4165
ened	-11.4174
▁assure	-11.4182
▁resignations	-11.4184
▁sw	-11.4186
▁christi	-11.419
▁audiences	-11.4197
store	-11.4202
▁fails	-11.4212
maz	-11.422
▁micros	-11.4222
▁subsidize	-11.4222
tter	-11.423
▁lights	-11.4245
▁realist	-11.425
▁graduate	-11.4264
▁advise	-11.4268
▁sandinista	-11.4268
▁counterpart	-11.4271
▁weapon	-11.4271
▁scandals	-11.4276
▁suggestion	-11.428
▁route	-11.4287
lled	-11.4291
▁wipe	-11.4293
▁container	-11.4301
▁amendments	-11.4316
perform	-11.4327
▁highways	-11.4331
▁inte	-11.4354
▁proceeding	-11.4355
▁agnos	-11.4361
oyed	-11.4365
guide	-11.4386
▁viol	-11.4394
▁surrender	-11.4397
▁threats	-11.4398
▁crush	-11.4398
▁procedur	-11.44
stream	-11.4401
lf	-11.4411
▁tighten	-11.4411
cle	-11.4419
paid	-11.4424
▁historic	-11.4426
ause	-11.4428
rror	-11.4433
▁repeat	-11.4434
▁compensat	-11.4434
▁afghanistan	-11.4436
▁arafat	-11.4436
▁availability	-11.4436
▁chromosome	-11.4436
▁criteria	-11.4436
▁devastating	-11.4436
▁empty	-11.4436
▁epicenter	-11.4436
▁frenzy	-11.4436
▁hollander	-11.4436
▁infrastructure	-11.4436
▁kaiser	-11.4436
▁montedison	-11.4436
▁nynex	-11.4436
▁overwhelming	-11.4436
▁peripheral	-11.4436
▁pessimistic	-11.4436
▁platform	-11.4436
▁reckless	-11.4436
▁resemble	-11.4436
▁rhetoric	-11.4436
▁stabilizing	-11.4436
▁welfare	-11.4436
▁weyerhaeuser	-11.4436
▁constituents	-11.4436
▁crazy	-11.4436
▁stewart	-11.4436
▁boasts	-11.4436
▁wisdom	-11.4436
▁demonstrators	-11.4436
▁revival	-11.4436
▁texans	-11.4436
▁omni	-11.4436
▁uncertainties	-11.4436
▁solicitation	-11.4436
▁literally	-11.4436
▁mirage	-11.4436
▁mediator	-11.4436
▁radar	-11.4436
▁belgium	-11.4436
▁embarrassment	-11.4436
rop	-11.4436
▁profile	-11.4437
▁asserts	-11.4437
hood	-11.4437
▁intact	-11.4437
▁limitations	-11.4438
▁reunification	-11.4438
▁manner	-11.4439
▁beaut	-11.444
▁capitalism	-11.444
▁desirable	-11.4441
▁robinson	-11.4442
garet	-11.4443
▁refugees	-11.4443
▁rental	-11.4443
▁battered	-11.4444
▁quist	-11.4445
▁carol	-11.4446
▁inclined	-11.4447
▁comeback	-11.445
▁pac	-11.4451
▁terminated	-11.4452
▁ruth	-11.4453
▁captured	-11.4454
▁fun	-11.4456
▁justified	-11.4457
▁prepayment	-11.4457
▁liable	-11.4458
▁smoothly	-11.4461
issue	-11.4461
wort	-11.4462
▁upheld	-11.4463
▁plot	-11.4464
▁selection	-11.4466
▁resisted	-11.4468
hew	-11.447
li	-11.4472
cial	-11.4474
▁nrm	-11.4478
▁defeated	-11.4482
mler	-11.4485
govern	-11.4485
▁wealthy	-11.4486
kem	-11.4487
▁revived	-11.4489
▁questionable	-11.4491
▁redeemed	-11.4493
any	-11.4495
▁modif	-11.4495
▁fits	-11.4497
▁approaches	-11.4498
▁recruiting	-11.4498
▁destroyed	-11.4499
▁severely	-11.4502
zer	-11.4502
▁chan	-11.4503
▁teaching	-11.4506
ginni	-11.4506
▁intimate	-11.4507
vale	-11.4508
▁survived	-11.451
▁coins	-11.4511
ft	-11.4518
de	-11.4521
▁proven	-11.4522
▁outsiders	-11.4524
▁shipp	-11.4533
mil	-11.4537
lorin	-11.4538
▁folks	-11.4539
▁automat	-11.4543
▁guests	-11.4543
▁regularly	-11.4543
▁tale	-11.4544
nold	-11.4547
▁repaid	-11.4547
▁mobile	-11.4552
▁pal	-11.4553
blast	-11.4555
▁customs	-11.4555
▁fish	-11.4558
horn	-11.4565
▁planet	-11.4565
▁bearing	-11.4567
▁rev	-11.4571
▁carat	-11.4582
▁oak	-11.4588
▁obstacles	-11.459
▁challenged	-11.4593
▁skin	-11.4594
▁guin	-11.4606
▁counseling	-11.4609
lected	-11.4611
rove	-11.4612
▁paintings	-11.4619
▁daughters	-11.4619
utting	-11.462
▁sour	-11.4622
▁millions	-11.4624
▁petition	-11.463
▁soil	-11.463
▁prosecutions	-11.4633
▁commercials	-11.4634
▁bureaucrats	-11.4636
terior	-11.4637
▁missiles	-11.4648
▁item	-11.4656
ron	-11.4659
▁institutes	-11.4659
minat	-11.4662
▁subsidiz	-11.4666
tics	-11.4667
anks	-11.467
▁deficits	-11.4677
▁beers	-11.4678
group	-11.4681
rely	-11.4683
▁meat	-11.4683
san	-11.469
▁presum	-11.4691
▁neighbors	-11.47
▁watches	-11.4706
▁tack	-11.4706
▁resumed	-11.4709
bo	-11.4717
▁surg	-11.4718
▁apartments	-11.4725
car	-11.475
▁appointments	-11.4751
lie	-11.4758
▁demanding	-11.4759
▁scenes	-11.4761
lash	-11.4771
▁na	-11.4781
▁legen	-11.4799
▁pain	-11.4803
orders	-11.4809
▁refunds	-11.4811
den	-11.4812
▁occurs	-11.4814
▁formation	-11.482
bel	-11.4831
makers	-11.4834
▁considerations	-11.484
bon	-11.4844
rable	-11.485
▁cycles	-11.4862
▁md	-11.4866
trick	-11.4869
▁opposes	-11.4878
▁bread	-11.4879
▁en	-11.4881
agging	-11.4893
▁reviews	-11.4897
eal	-11.4903
▁spe	-11.4905
assy	-11.492
que	-11.4922
▁tie	-11.4932
▁ps	-11.4938
vested	-11.4944
▁earthquakes	-11.4949
mont	-11.4952
▁oppos	-11.4952
anti	-11.4953
▁schedules	-11.4966
▁declares	-11.4985
▁announcements	-11.4986
rk	-11.4991
▁plo	-11.4994
▁ful	-11.4998
▁boosts	-11.5001
▁eddi	-11.5001
ns	-11.5007
we	-11.5022
cker	-11.5037
ried	-11.505
location	-11.5057
downs	-11.5061
water	-11.5066
▁lie	-11.509
▁hero	-11.5093
▁humans	-11.5094
gent	-11.51
▁disappear	-11.5104
▁combin	-11.5108
▁highs	-11.5115
▁mone	-11.5135
▁injury	-11.5145
controlled	-11.5148
▁kan	-11.515
▁chris	-11.5151
goods	-11.5152
uz	-11.5153
▁surveys	-11.516
ppen	-11.5161
buck	-11.5161
used	-11.5161
dura	-11.5164
▁midl	-11.5169
ccident	-11.5169
royal	-11.5174
▁debenture	-11.5177
▁supervisor	-11.5177
lent	-11.5178
▁obstacle	-11.5178
▁certificate	-11.5179
▁dynamic	-11.518
▁deduction	-11.5181
▁explosion	-11.5181
▁objective	-11.5183
▁brick	-11.5185
▁protein	-11.5185
▁legislator	-11.5186
democracy	-11.5186
▁ruble	-11.519
definitely	-11.519
spired	-11.5192
capital	-11.5194
▁minds	-11.5202
▁bomb	-11.5203
▁cuban	-11.5205
freight	-11.5213
uld	-11.5221
▁moments	-11.5226
▁chart	-11.523
istica	-11.5234
▁shel	-11.5236
▁retreat	-11.5247
▁shed	-11.5249
rough	-11.525
usia	-11.5253
drink	-11.5255
▁possib	-11.526
▁plain	-11.5272
pressed	-11.5273
▁mandate	-11.5284
int	-11.5285
atric	-11.5285
▁inher	-11.5307
test	-11.5308
▁sustain	-11.5308
▁psycholog	-11.5311
▁assembl	-11.5313
▁prestig	-11.5315
disclosed	-11.5315
▁complet	-11.5316
▁releases	-11.5318
▁alleg	-11.5318
▁postpone	-11.532
▁arrive	-11.5321
herit	-11.5332
▁regulate	-11.5334
iffer	-11.5338
▁colo	-11.5339
▁deliberat	-11.5344
▁cambodia	-11.5345
▁czechoslovakia	-11.5345
▁emhart	-11.5345
▁fluctuations	-11.5345
▁fragile	-11.5345
▁hiroshima	-11.5345
▁innovation	-11.5345
▁lexington	-11.5345
▁library	-11.5345
▁pockets	-11.5345
▁syndrome	-11.5345
▁temperatures	-11.5345
▁lexus	-11.5345
▁bacteria	-11.5345
▁demise	-11.5345
▁imagine	-11.5345
▁luzon	-11.5345
▁nevada	-11.5345
▁vacancy	-11.5345
▁gordon	-11.5345
▁mystery	-11.5345
▁debacle	-11.5345
▁reservations	-11.5345
▁therapy	-11.5345
▁diversification	-11.5345
▁ivory	-11.5345
▁filters	-11.5345
▁yellow	-11.5345
▁sutton	-11.5345
▁minorities	-11.5345
▁clutter	-11.5345
finiti	-11.5345
▁salinas	-11.5345
▁schwartz	-11.5345
▁smart	-11.5345
▁context	-11.5345
▁detectors	-11.5345
▁scams	-11.5345
▁goldsmith	-11.5345
▁rallies	-11.5345
▁skinner	-11.5345
▁vacant	-11.5345
▁accusations	-11.5345
▁unsettled	-11.5345
▁enthusiasm	-11.5345
▁holmes	-11.5345
▁amazing	-11.5345
▁vacation	-11.5345
▁identity	-11.5345
▁ethical	-11.5345
▁creativity	-11.5345
▁impression	-11.5345
▁exhibition	-11.5345
▁rubble	-11.5345
▁voluntarily	-11.5345
▁myself	-11.5345
▁embr	-11.5345
▁unavailable	-11.5346
▁greece	-11.5346
▁confere	-11.5346
▁cooper	-11.5346
▁herself	-11.5346
▁riskier	-11.5346
▁lagged	-11.5347
▁middlemen	-11.5347
▁breakdown	-11.5347
▁reasonably	-11.5347
▁cooperate	-11.5347
▁generous	-11.5348
▁greenberg	-11.5348
▁uncovered	-11.5348
▁fema	-11.5348
▁nikk	-11.5348
▁lagging	-11.5349
▁disposal	-11.5349
▁dismissal	-11.5349
▁cosby	-11.535
▁bribe	-11.535
▁chung	-11.535
▁vila	-11.5351
▁charleston	-11.5351
bart	-11.5352
▁datapoint	-11.5352
▁prospectus	-11.5352
▁pickup	-11.5353
▁choosing	-11.5354
▁readily	-11.5356
▁pitts	-11.536
▁heights	-11.5368
▁dance	-11.5368
▁industrialized	-11.5371
olated	-11.5371
▁dog	-11.5373
▁accelerate	-11.5375
▁implies	-11.5379
▁inco	-11.5384
▁niche	-11.5384
▁kent	-11.539
▁shoot	-11.5391
▁syn	-11.5392
▁lag	-11.5392
wise	-11.5392
llar	-11.5393
▁purchasers	-11.5393
erba	-11.5394
national	-11.5396
▁gi	-11.5397
sure	-11.5398
tary	-11.5399
▁fame	-11.5402
▁neck	-11.5402
▁announcer	-11.5402
▁hide	-11.5403
▁sloan	-11.5407
▁prof	-11.5411
with	-11.5412
▁penny	-11.5417
▁prohibited	-11.5418
▁vessels	-11.5418
▁tripled	-11.5419
▁listening	-11.5429
tissue	-11.5429
aced	-11.5432
fus	-11.5432
▁tremors	-11.5433
▁scramble	-11.5433
▁attending	-11.5439
serves	-11.5441
▁criminals	-11.5442
▁cautioned	-11.5444
sha	-11.5445
▁samples	-11.5446
▁revisions	-11.5447
▁vene	-11.5447
duce	-11.5449
▁abm	-11.5449
▁riding	-11.5449
▁boat	-11.5456
▁picks	-11.5462
numbered	-11.5463
▁installations	-11.5467
▁diet	-11.5471
▁ana	-11.5481
▁addressed	-11.5489
city	-11.5494
▁dave	-11.5496
▁sol	-11.5499
sian	-11.5501
mic	-11.5506
enfel	-11.5512
ustin	-11.5527
▁locked	-11.5527
▁upgrade	-11.5528
ously	-11.554
▁images	-11.5543
▁qua	-11.5545
▁cooperatives	-11.5546
▁supports	-11.5547
▁iras	-11.555
▁chairs	-11.5554
nell	-11.5558
vas	-11.5559
▁burned	-11.5566
ants	-11.5569
gest	-11.5573
clara	-11.5575
▁concludes	-11.5575
▁mild	-11.5575
▁capitalization	-11.5589
tension	-11.5589
▁hate	-11.5594
board	-11.5594
▁dial	-11.5606
parti	-11.5606
▁knowing	-11.5609
▁marc	-11.5614
▁violat	-11.562
counting	-11.562
▁voluntar	-11.5628
olish	-11.5629
▁tree	-11.5634
▁testif	-11.5642
▁intentions	-11.5649
▁marke	-11.5668
▁tires	-11.5671
▁mistakes	-11.5673
▁shortages	-11.5675
yers	-11.5683
▁dust	-11.5686
bor	-11.5696
▁sink	-11.5696
▁exclusi	-11.5714
control	-11.5743
uart	-11.5747
annual	-11.5754
said	-11.5762
▁pet	-11.5778
▁grade	-11.5788
umped	-11.5799
here	-11.5805
▁maintains	-11.5811
▁feelings	-11.5812
takeover	-11.5832
▁lar	-11.5851
pted	-11.5856
▁alike	-11.5862
▁climbing	-11.5862
sion	-11.5862
ollar	-11.5866
hitting	-11.5868
▁waters	-11.5876
▁messages	-11.5898
▁races	-11.5922
holding	-11.5926
still	-11.5931
alyst	-11.5932
tick	-11.5934
ions	-11.5935
▁disks	-11.5939
lle	-11.5945
tin	-11.5948
irming	-11.5948
▁nights	-11.5958
lined	-11.5964
▁lows	-11.5965
treated	-11.5967
▁lean	-11.5979
yard	-11.5982
ames	-11.5986
billion	-11.5987
stick	-11.5989
▁prov	-11.5999
lly	-11.6
can	-11.6004
iova	-11.602
▁stan	-11.6024
signing	-11.6027
em	-11.603
▁hedg	-11.6035
▁generations	-11.6049
▁europeans	-11.6063
ecker	-11.6064
light	-11.6072
anim	-11.6076
▁sal	-11.6078
stitute	-11.6107
▁constitut	-11.6114
fire	-11.6138
▁visits	-11.6144
▁repea	-11.6148
gand	-11.617
ko	-11.6172
▁harbor	-11.6179
▁taxpayer	-11.6179
▁component	-11.6179
▁citizen	-11.618
▁emphasi	-11.618
election	-11.6183
▁restriction	-11.6184
▁expectation	-11.6189
▁lender	-11.6193
▁opinions	-11.6214
appropriate	-11.6219
▁figur	-11.6226
▁recorder	-11.6227
signal	-11.623
▁daf	-11.6233
relations	-11.6243
▁resign	-11.6246
▁tap	-11.6251
▁ram	-11.6262
▁finances	-11.6263
▁damag	-11.6267
▁surviv	-11.627
▁phones	-11.6283
▁buys	-11.6286
▁introduc	-11.6287
▁franchisee	-11.629
▁cor	-11.6291
▁neat	-11.6293
amic	-11.6299
▁pat	-11.6301
ould	-11.6302
cycle	-11.6302
▁lobby	-11.6305
▁curtail	-11.6306
▁downgrad	-11.6307
▁nathan	-11.6307
▁suspend	-11.6309
▁resist	-11.6309
disk	-11.6311
welcome	-11.6312
▁inevitabl	-11.6315
▁luck	-11.6317
guard	-11.6318
ons	-11.632
ightened	-11.6322
▁deferr	-11.6324
▁eventual	-11.6327
▁erode	-11.6331
▁refuge	-11.6336
▁ger	-11.6339
▁stream	-11.6339
▁lawn	-11.6341
▁clar	-11.6342
▁tom	-11.6342
adium	-11.6343
favorable	-11.6343
▁corrupt	-11.6343
▁construct	-11.6344
▁guild	-11.6344
▁fabric	-11.6344
▁scrap	-11.6344
relevant	-11.6344
▁afghan	-11.6345
▁batibot	-11.6345
▁columbus	-11.6345
▁devastation	-11.6345
▁imbalances	-11.6345
▁interfere	-11.6345
▁mahfouz	-11.6345
▁marathon	-11.6345
▁merabank	-11.6345
▁reversal	-11.6345
▁rubbermaid	-11.6345
▁stupid	-11.6345
▁technicians	-11.6345
▁verdict	-11.6345
▁village	-11.6345
▁innovative	-11.6345
▁irresponsible	-11.6345
▁louisiana	-11.6345
▁mulford	-11.6345
▁shapiro	-11.6345
▁embryo	-11.6345
▁liberty	-11.6345
▁breakfast	-11.6345
▁devaluation	-11.6345
▁thieves	-11.6345
▁separation	-11.6345
▁ackerman	-11.6345
▁plaza	-11.6345
▁soldiers	-11.6345
plough	-11.6345
▁innocent	-11.6345
▁confusing	-11.6345
▁lauder	-11.6345
▁scrapped	-11.6345
▁attendance	-11.6345
▁garrison	-11.6345
▁lipper	-11.6345
▁scarce	-11.6345
▁bleak	-11.6345
▁crises	-11.6345
▁disarray	-11.6345
▁evil	-11.6345
▁illustration	-11.6345
▁batman	-11.6345
▁yourself	-11.6345
▁journalism	-11.6346
▁please	-11.6346
▁speculative	-11.6346
▁preparation	-11.6346
▁oversight	-11.6346
▁shaky	-11.6346
▁ireland	-11.6346
▁unique	-11.6346
▁declaration	-11.6346
▁claimants	-11.6346
▁turf	-11.6346
▁confidential	-11.6346
▁possibilities	-11.6347
▁gmac	-11.6347
hamb	-11.6347
▁fairness	-11.6347
▁glory	-11.6347
▁testified	-11.6347
▁nasty	-11.6347
▁processors	-11.6348
▁freeze	-11.6348
▁celebration	-11.6348
▁nerves	-11.6349
▁mo	-11.6349
▁boomers	-11.6349
▁headline	-11.6349
▁adoption	-11.635
▁everywhere	-11.635
▁exciting	-11.6351
precedent	-11.6352
soft	-11.6354
▁parity	-11.6355
▁timetable	-11.6356
▁sedan	-11.6357
lington	-11.6358
▁liquidated	-11.636
▁tighter	-11.6361
▁unknown	-11.6361
▁indirect	-11.6362
▁winne	-11.6362
▁leather	-11.6364
▁heels	-11.6364
▁relieved	-11.6366
▁revamped	-11.6366
using	-11.6368
▁hardest	-11.6368
▁kean	-11.637
▁roth	-11.6371
ancy	-11.6371
▁consumed	-11.6372
▁implemented	-11.6374
▁gainers	-11.6378
▁deteriorating	-11.6379
mes	-11.6382
▁walt	-11.6382
▁evolution	-11.6387
▁reinforc	-11.6389
gene	-11.6389
▁reversed	-11.6392
▁nasd	-11.6395
▁weaknesses	-11.6395
▁bowling	-11.6396
▁indirectly	-11.6396
▁roller	-11.64
▁super	-11.64
▁entit	-11.6403
ism	-11.6405
▁resigning	-11.641
▁underwrite	-11.641
▁loved	-11.6411
▁altered	-11.6413
▁intervene	-11.6415
▁luf	-11.6417
▁sorts	-11.6418
dipped	-11.642
▁olympics	-11.6426
▁exclusively	-11.6426
▁occasions	-11.6428
▁fuels	-11.6431
▁peaked	-11.6433
▁colleges	-11.6434
agnos	-11.6435
▁bags	-11.6437
▁etc	-11.644
▁johns	-11.6442
▁sponsored	-11.6445
▁collected	-11.6447
▁slumped	-11.6454
▁allocat	-11.6454
atch	-11.6454
▁conve	-11.6455
▁bargaining	-11.646
ovo	-11.6462
▁taped	-11.6463
prox	-11.6478
▁polled	-11.6479
▁pesticides	-11.648
▁att	-11.6481
action	-11.6488
backe	-11.6489
▁dies	-11.649
cement	-11.6494
▁outperform	-11.651
authoriz	-11.6512
▁harbors	-11.6515
▁trem	-11.6515
▁copying	-11.6519
▁discourage	-11.6522
▁newhouse	-11.6523
nstitutional	-11.6524
▁supervisors	-11.6533
▁afterward	-11.6546
umn	-11.6546
▁sandinistas	-11.6551
▁withstand	-11.6554
▁bearings	-11.6555
nancy	-11.6556
even	-11.6565
▁elements	-11.6566
▁seasons	-11.6567
▁circles	-11.6585
▁wires	-11.6595
▁studi	-11.6598
assault	-11.6603
▁hats	-11.6604
▁preferences	-11.6622
▁diamonds	-11.6622
▁disappointments	-11.6622
▁cure	-11.663
nts	-11.6632
▁advises	-11.6633
▁perceptions	-11.664
pact	-11.6641
shore	-11.6646
▁towns	-11.6655
like	-11.6656
holders	-11.6657
ched	-11.6658
ruce	-11.6659
iler	-11.6671
▁backers	-11.6675
iro	-11.6676
▁differently	-11.669
▁mile	-11.6696
hn	-11.6696
▁drops	-11.6709
▁exceptions	-11.6715
▁labels	-11.6719
▁narrowing	-11.6731
▁males	-11.6738
raft	-11.674
fective	-11.6745
▁parks	-11.6746
▁practic	-11.6753
▁degrees	-11.676
▁rothschilds	-11.6764
▁blu	-11.6777
▁comparisons	-11.6781
▁recommends	-11.6787
ode	-11.6788
fman	-11.6788
ship	-11.6791
▁presidents	-11.6797
lowe	-11.6802
pa	-11.6819
▁trains	-11.6821
elling	-11.6826
▁grab	-11.683
come	-11.6832
▁glo	-11.6833
▁sentences	-11.6833
▁automobiles	-11.6835
hard	-11.6835
▁leases	-11.6846
▁desks	-11.6848
▁af	-11.6865
▁strateg	-11.6868
▁scenarios	-11.687
tch	-11.6876
ni	-11.6885
▁haven	-11.6896
▁trials	-11.6899
ich	-11.6906
▁ten	-11.6914
▁tapes	-11.6924
▁spokesm	-11.6931
ving	-11.6933
▁salt	-11.6938
if	-11.6945
▁rac	-11.6955
gen	-11.6956
▁cook	-11.6959
yle	-11.6962
▁airing	-11.6965
▁trips	-11.6974
spa	-11.7016
▁evaluat	-11.7027
itness	-11.7039
▁steer	-11.7047
▁studios	-11.7054
▁hess	-11.7056
workers	-11.7064
▁exter	-11.7066
mr	-11.7079
bs	-11.7083
▁semiconductors	-11.71
pawn	-11.7106
▁symp	-11.7107
▁pla	-11.7107
▁pie	-11.7112
nova	-11.7142
price	-11.7163
▁gin	-11.7177
▁palm	-11.7187
▁refer	-11.7195
equity	-11.7203
▁fl	-11.7209
family	-11.7223
ping	-11.7229
▁tonight	-11.723
jam	-11.7233
oping	-11.7237
cer	-11.7254
▁citi	-11.7257
▁pan	-11.7257
▁skeptic	-11.7275
▁generale	-11.7282
▁anticipat	-11.7282
venture	-11.7285
▁dealership	-11.7286
▁opponent	-11.729
▁politician	-11.7291
▁demonstration	-11.7291
▁adult	-11.7291
▁activist	-11.7292
buffe	-11.7294
▁auctions	-11.7295
▁tall	-11.7306
ada	-11.7306
▁upgrad	-11.731
▁pas	-11.7311
▁ral	-11.7316
▁satisf	-11.7316
▁capitalize	-11.7319
seeking	-11.7326
▁prob	-11.7339
▁staffs	-11.734
▁grower	-11.7351
owes	-11.7354
▁ref	-11.7363
cancer	-11.7367
laying	-11.7369
▁stones	-11.737
▁distan	-11.737
tible	-11.7374
bike	-11.7378
worth	-11.7379
ification	-11.7386
class	-11.7391
▁plung	-11.7394
▁driver	-11.7397
▁bowl	-11.7399
▁significan	-11.7401
ration	-11.7402
▁metr	-11.7408
▁embarrass	-11.7416
▁mont	-11.7418
▁bon	-11.7419
avai	-11.7424
▁files	-11.7426
ronically	-11.7427
▁preserv	-11.7427
▁abrupt	-11.7431
▁capture	-11.7432
▁undermine	-11.7432
▁relieve	-11.7436
ctively	-11.744
▁maxi	-11.7447
▁profession	-11.7447
▁disposa	-11.7451
▁olympi	-11.7451
▁athlet	-11.7453
▁fraction	-11.7454
▁appreciat	-11.7455
▁birth	-11.7455
▁prudent	-11.7455
▁chemi	-11.7455
▁optimis	-11.7456
▁calendar	-11.7456
▁cemetery	-11.7456
▁cushion	-11.7456
▁deductible	-11.7456
▁deputies	-11.7456
▁deukmejian	-11.7456
▁dilemma	-11.7456
▁enemies	-11.7456
▁injection	-11.7456
▁jupiter	-11.7456
▁jurisdiction	-11.7456
▁korotich	-11.7456
▁krasnoyarsk	-11.7456
▁lyonnais	-11.7456
▁maneuver	-11.7456
▁nebraska	-11.7456
▁ontario	-11.7456
▁pakistan	-11.7456
▁pearce	-11.7456
▁pfizer	-11.7456
▁qualified	-11.7456
▁reconciliation	-11.7456
▁ridiculous	-11.7456
▁steppenwolf	-11.7456
▁temptation	-11.7456
▁torrijos	-11.7456
▁vienna	-11.7456
▁wohlstetter	-11.7456
▁caltrans	-11.7456
▁gridlock	-11.7456
▁seagate	-11.7456
▁literature	-11.7456
▁tendency	-11.7456
▁diaper	-11.7456
▁equitable	-11.7456
▁clinton	-11.7456
▁minicomputers	-11.7456
▁dubious	-11.7456
▁unhappy	-11.7456
▁ortiz	-11.7456
▁initiated	-11.7456
▁metromedia	-11.7456
▁educators	-11.7456
▁equipped	-11.7456
▁prescription	-11.7456
▁clerk	-11.7456
▁outflows	-11.7456
▁replied	-11.7456
▁billionaire	-11.7456
▁necessity	-11.7456
▁residence	-11.7456
▁guinea	-11.7456
▁invented	-11.7456
▁offshore	-11.7456
▁marriage	-11.7456
▁horrible	-11.7456
▁exploded	-11.7456
▁coatings	-11.7456
▁edisto	-11.7456
▁koch	-11.7456
▁manipulation	-11.7457
▁homelessness	-11.7457
▁credible	-11.7457
▁chaos	-11.7457
▁variations	-11.7457
▁coach	-11.7458
▁antibody	-11.7458
▁bribery	-11.7458
▁subsidy	-11.7458
▁correction	-11.7459
▁minus	-11.7459
▁tube	-11.7459
▁seita	-11.7459
▁irvin	-11.746
▁shoppers	-11.746
▁unrest	-11.746
▁restrictive	-11.7461
▁abramson	-11.7461
▁litera	-11.7461
▁deviation	-11.7461
▁potatoes	-11.7461
▁troubling	-11.7462
▁wives	-11.7463
▁shaking	-11.7463
▁inefficient	-11.7463
▁baum	-11.7464
reference	-11.7464
▁medicare	-11.7464
▁representation	-11.7464
▁franchisers	-11.7465
▁trash	-11.7465
▁francis	-11.7466
▁semi	-11.7466
▁digest	-11.7468
▁slack	-11.7472
▁outright	-11.7472
▁transit	-11.7472
brook	-11.7473
nnet	-11.7473
acle	-11.7474
▁fashionable	-11.7474
vators	-11.7476
▁stol	-11.7479
topped	-11.7483
▁licensing	-11.7483
▁forge	-11.7484
▁gathered	-11.7485
▁atlanti	-11.7486
▁incomplete	-11.7487
▁televis	-11.7488
▁disrupted	-11.7488
▁shaken	-11.7488
▁haul	-11.7489
gued	-11.7489
▁inevitable	-11.7489
frame	-11.749
▁fax	-11.749
▁softening	-11.7492
▁valuation	-11.7492
▁lifetime	-11.7494
▁mural	-11.7495
▁speculat	-11.7496
carry	-11.7496
profitable	-11.7497
▁panels	-11.7497
hall	-11.7499
roper	-11.7501
▁retreated	-11.7504
▁boring	-11.7505
▁yeast	-11.7506
▁bono	-11.7515
▁intensive	-11.7528
▁shocked	-11.7529
▁dire	-11.7531
boe	-11.7534
rov	-11.7537
▁belgi	-11.7542
▁neb	-11.7547
trapped	-11.7548
▁coordinat	-11.755
▁scar	-11.7551
▁tabl	-11.7553
▁dea	-11.7554
▁cough	-11.7554
▁belts	-11.7561
▁jokes	-11.7565
▁measurements	-11.7568
friendly	-11.7569
▁gum	-11.7572
rival	-11.7573
dealer	-11.7574
▁robins	-11.7574
▁ballooning	-11.7576
▁ele	-11.7577
▁stretched	-11.758
barrel	-11.7583
▁inflat	-11.7583
▁knocking	-11.7584
▁scholars	-11.7587
chief	-11.7601
▁guerrillas	-11.7607
▁hair	-11.761
▁cra	-11.7613
his	-11.7623
ntage	-11.7626
▁bottl	-11.7628
▁skeptics	-11.7632
iety	-11.7635
fisca	-11.764
▁soo	-11.764
▁rome	-11.7643
▁soar	-11.7644
keeps	-11.7649
specta	-11.765
▁indefinitely	-11.7652
▁quantit	-11.7654
▁bricks	-11.7665
▁explosions	-11.7667
weigh	-11.7668
deemed	-11.7668
▁arena	-11.7676
▁forgotten	-11.7677
lenn	-11.7683
▁bag	-11.7686
▁hel	-11.7687
rriers	-11.7692
itar	-11.7698
kage	-11.7699
▁aoun	-11.7709
enni	-11.7718
▁flu	-11.7722
▁administrators	-11.7722
oid	-11.7727
▁affidavits	-11.7727
▁defending	-11.7731
pwa	-11.7733
▁lbos	-11.7734
▁trails	-11.774
▁fu	-11.774
ri	-11.7742
▁eu	-11.7748
▁practiced	-11.7754
▁burge	-11.7754
▁sums	-11.7767
▁nat	-11.7792
▁cand	-11.7797
▁fires	-11.7807
▁rash	-11.7807
computer	-11.7813
▁drinks	-11.7814
▁ny	-11.7814
netic	-11.7817
▁impress	-11.7842
▁horses	-11.7844
lion	-11.7855
▁firmer	-11.7867
▁killings	-11.787
nker	-11.7873
tones	-11.7876
▁beating	-11.7877
ier	-11.7885
▁float	-11.7888
▁notabl	-11.7891
▁schemes	-11.7904
▁pools	-11.7907
dded	-11.7918
▁tci	-11.792
llon	-11.7923
willing	-11.7928
intel	-11.7932
some	-11.7933
proving	-11.7934
▁dres	-11.7935
▁poli	-11.7941
stry	-11.7947
▁airports	-11.7948
▁reserved	-11.7952
▁patter	-11.7955
▁cater	-11.7956
real	-11.7957
iving	-11.7966
▁disclosures	-11.7967
▁bother	-11.7967
ole	-11.7969
cope	-11.7988
obby	-11.7994
▁swaps	-11.8003
▁liste	-11.8006
pher	-11.8006
▁assumptions	-11.8026
ired	-11.8031
▁audits	-11.8033
▁nomina	-11.8036
▁jal	-11.8043
▁indians	-11.8084
▁ear	-11.8092
▁medica	-11.8099
ium	-11.8122
raised	-11.8125
eer	-11.8146
▁dism	-11.815
▁foundations	-11.8152
▁cer	-11.8153
tcher	-11.8161
solve	-11.8164
van	-11.8165
▁defer	-11.8172
▁aut	-11.818
▁sky	-11.8182
order	-11.8195
▁studie	-11.8197
▁continu	-11.8218
▁bec	-11.8218
▁spoken	-11.8218
▁cancers	-11.8219
home	-11.8227
▁forever	-11.8232
curr	-11.8239
▁careers	-11.826
▁gree	-11.826
arby	-11.8264
▁preci	-11.8272
coming	-11.8287
▁sc	-11.8288
eller	-11.829
ample	-11.8298
▁marri	-11.8303
▁theories	-11.8305
cel	-11.8309
▁grains	-11.8316
leased	-11.8329
ena	-11.8337
ho	-11.8338
soviet	-11.8342
from	-11.8346
war	-11.837
▁opera	-11.8375
▁styles	-11.8389
▁raci	-11.8402
lude	-11.8403
written	-11.8404
▁desi	-11.8409
▁z	-11.842
▁seconds	-11.8434
▁courses	-11.8442
▁bann	-11.8446
rity	-11.8478
backs	-11.8478
artin	-11.848
posed	-11.8486
drug	-11.8504
offs	-11.8505
▁prospe	-11.8511
mo	-11.8513
inted	-11.8516
sis	-11.8516
western	-11.8518
▁crystal	-11.8533
▁guerrilla	-11.8537
▁pesticide	-11.8537
▁negotiation	-11.8538
▁installation	-11.8539
▁cosmetic	-11.854
▁troop	-11.8542
▁supplie	-11.8543
▁prize	-11.8544
dian	-11.8546
▁guest	-11.8546
▁rebel	-11.8549
lated	-11.856
▁understands	-11.8563
nea	-11.8564
radic	-11.8571
▁nose	-11.8593
▁bro	-11.861
▁shippe	-11.861
mination	-11.8625
walk	-11.8626
once	-11.8632
arter	-11.8632
▁yard	-11.8633
▁eric	-11.864
bbie	-11.8656
▁implement	-11.8668
▁energ	-11.8673
▁sco	-11.868
▁adm	-11.868
lew	-11.8683
nity	-11.8685
▁ku	-11.8688
▁subscribe	-11.8695
author	-11.87
▁averag	-11.8704
▁virgin	-11.8705
▁ambitions	-11.8706
▁baldwin	-11.8706
▁constituency	-11.8706
▁cupertino	-11.8706
▁dioxide	-11.8706
▁disabilities	-11.8706
▁divestiture	-11.8706
▁fantasy	-11.8706
▁fazio	-11.8706
▁glamorous	-11.8706
▁horizon	-11.8706
▁hubbard	-11.8706
▁hyundai	-11.8706
▁incinerator	-11.8706
▁inspection	-11.8706
▁jitters	-11.8706
▁kgb	-11.8706
▁mafia	-11.8706
▁malignant	-11.8706
▁mcalpine	-11.8706
▁memphis	-11.8706
▁mushrooms	-11.8706
▁peddling	-11.8706
▁pervasive	-11.8706
▁polyethylene	-11.8706
▁preamble	-11.8706
▁privacy	-11.8706
▁remodeling	-11.8706
▁shakespeare	-11.8706
▁sovereignty	-11.8706
▁tailspin	-11.8706
▁vague	-11.8706
▁verwoerd	-11.8706
▁noxell	-11.8706
▁wyoming	-11.8706
▁analytical	-11.8706
▁constraints	-11.8706
▁inouye	-11.8706
▁misstated	-11.8706
▁underwear	-11.8706
▁wilbur	-11.8706
▁encountered	-11.8706
▁feedlots	-11.8706
▁bronfman	-11.8706
▁intensify	-11.8706
▁disadvantage	-11.8706
▁debris	-11.8706
▁exotic	-11.8706
▁unesco	-11.8706
▁stereo	-11.8706
▁disabled	-11.8706
▁chevy	-11.8706
▁tenants	-11.8706
▁wrap	-11.8706
▁excitement	-11.8706
▁notebook	-11.8706
▁dominion	-11.8706
▁humor	-11.8706
▁pinpoint	-11.8706
▁arbitrator	-11.8706
▁hammond	-11.8706
▁jolla	-11.8706
▁unpopular	-11.8706
▁sorrell	-11.8706
▁psych	-11.8706
▁underground	-11.8706
▁toxic	-11.8706
▁capability	-11.8707
▁insistence	-11.8707
▁proposition	-11.8707
▁twist	-11.8707
▁replies	-11.8707
▁deceptive	-11.8707
▁relax	-11.8707
▁shutdown	-11.8707
▁overcapacity	-11.8707
▁illness	-11.8708
▁punishment	-11.8708
▁counties	-11.8708
▁harsh	-11.8708
▁disagreement	-11.8708
▁coupons	-11.8709
▁jewelers	-11.8709
▁photographic	-11.8709
▁repayment	-11.8709
▁chores	-11.8709
▁stockbrokers	-11.8709
▁solicit	-11.871
▁hurry	-11.871
▁earliest	-11.8711
▁policyholders	-11.8711
▁peaceful	-11.8711
▁agric	-11.8711
▁effectiveness	-11.8711
▁richfield	-11.8712
▁overdue	-11.8713
▁shack	-11.8713
▁materialized	-11.8714
▁lesko	-11.8715
▁burton	-11.8715
▁coaches	-11.8715
▁reformers	-11.8717
▁plight	-11.8718
▁seniority	-11.8719
craft	-11.8721
▁needham	-11.8723
▁coats	-11.8724
▁analyze	-11.8724
▁truce	-11.8725
olic	-11.8726
▁expression	-11.8728
formal	-11.8728
egon	-11.8731
▁grave	-11.8733
▁fix	-11.8735
▁capita	-11.8736
teria	-11.8738
▁internationally	-11.8738
unification	-11.874
▁nev	-11.8741
▁alarmed	-11.8742
ranch	-11.8743
simil	-11.8744
ct	-11.8744
▁undervalued	-11.8744
presentation	-11.8745
▁fake	-11.8747
▁prestige	-11.8748
▁wade	-11.8752
▁leaped	-11.8761
▁greate	-11.8761
▁fighter	-11.8764
▁sch	-11.8767
▁undertaking	-11.8769
▁sin	-11.8774
▁lens	-11.8776
wcr	-11.8777
▁adequately	-11.8778
▁unix	-11.8779
▁pitches	-11.8783
▁axa	-11.8784
▁performances	-11.8784
▁goodman	-11.879
▁lighter	-11.8791
▁principals	-11.8793
▁cooled	-11.8799
issued	-11.8803
ifted	-11.8805
▁solved	-11.8809
▁murdered	-11.881
rton	-11.881
igna	-11.8811
▁performers	-11.8811
ited	-11.8815
sharing	-11.8817
environmentalism	-11.882
▁guns	-11.8823
▁corrected	-11.8825
wanted	-11.8826
▁clues	-11.883
▁hurdles	-11.8833
▁storer	-11.8833
▁recalled	-11.8833
game	-11.8833
▁exo	-11.8844
▁curr	-11.8844
banking	-11.8848
▁habits	-11.8854
▁trough	-11.8855
name	-11.8857
▁busi	-11.8866
passed	-11.8867
sumi	-11.8867
ugge	-11.8868
▁burt	-11.8872
▁prizes	-11.8874
▁pope	-11.8876
scott	-11.8886
treating	-11.8905
consider	-11.8905
ernst	-11.8905
lambert	-11.8912
▁sue	-11.8917
mail	-11.8921
▁switching	-11.8938
friend	-11.8941
waiting	-11.8946
enforcement	-11.895
published	-11.895
ade	-11.8954
casino	-11.896
lman	-11.8963
anticipated	-11.8966
▁russ	-11.897
wright	-11.898
▁ducks	-11.8991
▁gar	-11.8993
▁jacob	-11.9001
border	-11.9003
▁wings	-11.9005
expected	-11.9014
▁hazards	-11.9015
minute	-11.9017
sufficient	-11.9017
uk	-11.902
injury	-11.9023
print	-11.9038
▁suitors	-11.904
rase	-11.9043
▁chair	-11.9048
▁ironic	-11.9054
▁raiders	-11.906
planes	-11.9061
olive	-11.9062
spar	-11.9071
tra	-11.9082
▁rein	-11.9087
▁builds	-11.9099
laus	-11.9117
▁layoffs	-11.9123
▁li	-11.9133
▁nl	-11.9136
▁tens	-11.9143
▁exported	-11.9145
right	-11.9149
▁strategists	-11.9151
▁insure	-11.9152
▁setbacks	-11.9155
respond	-11.9157
ement	-11.916
▁matte	-11.9172
iron	-11.9177
palm	-11.9196
▁wach	-11.9198
▁bart	-11.9199
ify	-11.9201
▁spre	-11.9209
▁reviewed	-11.9214
rtie	-11.9231
▁mailing	-11.9235
▁bud	-11.924
▁sher	-11.9254
▁arch	-11.9256
actical	-11.9257
reas	-11.9267
lar	-11.9267
▁probable	-11.927
zu	-11.9279
▁ward	-11.928
pac	-11.9281
taken	-11.93
tar	-11.9301
▁dates	-11.9312
dus	-11.9317
bonds	-11.9322
▁conservat	-11.9325
closed	-11.9329
insurance	-11.933
vari	-11.9332
▁exists	-11.9337
nbc	-11.9339
▁freeways	-11.9341
gly	-11.9359
▁woes	-11.9365
vans	-11.9375
inson	-11.9376
▁woods	-11.9376
▁stadiums	-11.9378
▁ratios	-11.9379
▁issuer	-11.9381
sma	-11.9382
dow	-11.9403
eventh	-11.9405
tro	-11.9414
▁execut	-11.9421
productive	-11.9425
inte	-11.9426
▁crow	-11.9436
pped	-11.9438
▁ring	-11.9441
▁curbs	-11.9444
▁aichi	-11.9445
▁theaters	-11.9451
▁reputa	-11.9452
▁hosts	-11.9454
▁aired	-11.9454
▁aboard	-11.9454
▁wer	-11.9459
rown	-11.9465
▁syndicates	-11.9466
▁freedoms	-11.9468
▁secrets	-11.947
nched	-11.9487
gger	-11.9488
erated	-11.9504
▁summ	-11.9507
▁divers	-11.9509
▁channels	-11.9513
lays	-11.9516
▁thi	-11.9523
nw	-11.9532
▁thur	-11.9535
▁trin	-11.9538
▁floors	-11.9541
▁lt	-11.9552
ti	-11.9558
nivers	-11.9564
ranged	-11.9566
rica	-11.9572
dell	-11.9574
▁responsi	-11.958
south	-11.9583
▁ferr	-11.9588
mc	-11.9603
stern	-11.9604
azard	-11.9606
▁commit	-11.9613
▁mothers	-11.9617
▁circulat	-11.9627
▁likes	-11.9636
▁educate	-11.964
nville	-11.9648
▁ven	-11.9655
▁rod	-11.967
nni	-11.9682
▁toys	-11.969
▁volunt	-11.9692
▁circuits	-11.9694
verage	-11.9709
▁opp	-11.9724
angered	-11.9735
ologi	-11.9736
▁weekes	-11.974
ank	-11.9744
nist	-11.9762
tical	-11.9769
▁phon	-11.9781
fo	-11.9784
▁ice	-11.9803
view	-11.9818
▁fad	-11.9826
country	-11.983
med	-11.9841
equently	-11.985
▁titles	-11.9866
▁camps	-11.987
issues	-11.9874
▁appl	-11.9906
▁lying	-11.9908
▁broade	-11.9917
burg	-11.9917
▁productions	-11.9925
ntar	-11.9936
▁operat	-11.994
lap	-11.9954
▁resource	-11.9962
apped	-11.9963
▁bullet	-11.9964
▁scholar	-11.9965
▁habit	-11.9966
▁superconductor	-11.9967
▁workstation	-11.9967
▁participant	-11.9968
▁transplant	-11.9968
▁expenditure	-11.9968
▁consequence	-11.9969
hone	-11.9969
▁cloud	-11.997
▁robin	-11.9972
▁finger	-11.9973
▁warn	-11.9973
▁journalist	-11.9974
▁zone	-11.9975
rank	-11.998
▁investigator	-11.9983
▁revision	-11.9983
▁sample	-12.0003
ped	-12.0018
▁estimat	-12.0036
▁restrain	-12.0036
▁clue	-12.0039
▁epo	-12.0046
executive	-12.0051
ncer	-12.0072
▁arrang	-12.0076
▁judg	-12.008
▁dipped	-12.0082
▁disrupt	-12.0085
▁teache	-12.0085
▁consume	-12.0087
erely	-12.009
▁dismiss	-12.009
▁practi	-12.009
▁conspir	-12.0095
▁contemplat	-12.0095
▁jeopard	-12.0098
▁facilit	-12.01
▁alarm	-12.0101
▁honest	-12.0102
▁gather	-12.0103
drop	-12.0105
▁russia	-12.0107
▁gradual	-12.0111
▁justifie	-12.0112
▁respective	-12.012
face	-12.0121
opia	-12.0124
▁neutr	-12.0126
▁brewer	-12.0127
xtra	-12.0131
hibit	-12.0132
▁manipulat	-12.0133
agne	-12.0133
▁exhibit	-12.0134
▁stimulat	-12.0134
▁bankrupt	-12.0134
▁argentina	-12.0134
▁collaboration	-12.0134
▁confiscated	-12.0134
▁convenient	-12.0134
▁crumbling	-12.0134
▁depletion	-12.0134
▁doctrine	-12.0134
▁doldrums	-12.0134
▁evasion	-12.0134
▁exhausted	-12.0134
▁faculty	-12.0134
▁fertilizer	-12.0134
▁flavor	-12.0134
▁hancock	-12.0134
▁hepatitis	-12.0134
▁indonesia	-12.0134
▁jittery	-12.0134
▁kitchen	-12.0134
▁mitterrand	-12.0134
▁mosbacher	-12.0134
▁occupied	-12.0134
▁osaka	-12.0134
▁peanuts	-12.0134
▁portugal	-12.0134
▁pretoria	-12.0134
▁propaganda	-12.0134
▁rehabilitation	-12.0134
▁satisfactory	-12.0134
▁seymour	-12.0134
▁sverdlovsk	-12.0134
▁tribune	-12.0134
▁tumbling	-12.0134
▁turbulence	-12.0134
▁unsolicited	-12.0134
▁unwarranted	-12.0134
▁upheaval	-12.0134
▁whiskey	-12.0134
▁censorship	-12.0134
▁enemy	-12.0134
▁equitec	-12.0134
▁gestures	-12.0134
▁lumpur	-12.0134
▁nightmare	-12.0134
▁scorpio	-12.0134
▁somalia	-12.0134
▁spectrum	-12.0134
▁tragedy	-12.0134
▁violetta	-12.0134
▁annuities	-12.0134
▁confederation	-12.0134
▁discarded	-12.0134
▁enviro	-12.0134
▁ministries	-12.0134
▁newcomers	-12.0134
▁omaha	-12.0134
▁benign	-12.0134
▁concord	-12.0134
abortionists	-12.0134
▁bodies	-12.0134
▁champ	-12.0134
▁connolly	-12.0134
▁deficiencies	-12.0134
▁haunts	-12.0134
▁municipalities	-12.0134
▁waterworks	-12.0134
▁entertaining	-12.0135
▁scotland	-12.0135
▁mainstay	-12.0135
▁confused	-12.0135
▁thriving	-12.0135
▁urgency	-12.0135
▁zeta	-12.0135
▁trudeau	-12.0135
▁perjury	-12.0135
▁arteries	-12.0135
▁donuts	-12.0135
▁friendship	-12.0135
xist	-12.0135
▁invitation	-12.0135
▁barber	-12.0135
▁adams	-12.0135
▁pigs	-12.0135
▁royalties	-12.0135
▁casual	-12.0135
ultu	-12.0135
▁enthusiastic	-12.0135
▁drastically	-12.0135
▁infringe	-12.0136
▁summary	-12.0136
▁advent	-12.0136
▁wheels	-12.0136
▁endorsement	-12.0136
▁offenders	-12.0136
▁harmful	-12.0136
▁mehl	-12.0137
▁dominance	-12.0137
▁workplace	-12.0137
▁ethi	-12.0139
▁demler	-12.0139
angyo	-12.0139
▁uncommon	-12.0139
▁troublesome	-12.0139
▁inflows	-12.0139
▁lynn	-12.0139
▁arrange	-12.0139
▁tricky	-12.014
▁smokers	-12.014
▁heavier	-12.014
▁bullion	-12.014
▁accountability	-12.014
▁tharp	-12.014
▁phelps	-12.014
▁echo	-12.0141
▁norway	-12.0141
▁silent	-12.0142
moran	-12.0142
cient	-12.0142
▁landmark	-12.0143
urement	-12.0143
▁balked	-12.0143
▁dramatically	-12.0144
roder	-12.0145
▁minim	-12.0145
▁hub	-12.0146
▁thrust	-12.0146
▁flowers	-12.0146
▁campus	-12.0146
▁midday	-12.0148
▁differ	-12.0149
▁prevention	-12.0152
▁entre	-12.0155
lance	-12.0155
▁chile	-12.0156
▁wound	-12.0157
▁tune	-12.0157
▁circulated	-12.0159
▁murd	-12.0159
▁noise	-12.0159
▁kim	-12.016
▁vax	-12.0161
▁grid	-12.0161
▁trap	-12.0163
named	-12.0163
▁goodwill	-12.0164
▁meals	-12.0164
▁overruns	-12.0165
▁abruptly	-12.0166
▁undermined	-12.0167
▁powerhouse	-12.0168
▁wishes	-12.0169
▁indexation	-12.017
▁sentencing	-12.0173
rodin	-12.0173
rose	-12.0174
▁wedd	-12.0176
▁courthouse	-12.0176
▁undeveloped	-12.0176
▁surpluses	-12.0178
pair	-12.018
▁stabilized	-12.0182
▁belt	-12.0183
▁downside	-12.0184
▁damn	-12.0185
▁minn	-12.0185
▁lineup	-12.0185
▁dive	-12.0189
▁mouse	-12.0189
▁crest	-12.019
▁disagreed	-12.0192
▁debates	-12.0193
▁worsening	-12.0194
▁bothered	-12.0195
▁decreased	-12.0199
identified	-12.02
▁surrendered	-12.0202
dical	-12.0202
▁narrower	-12.0204
shed	-12.0205
▁worsen	-12.0205
▁thick	-12.0208
losing	-12.0211
duff	-12.0212
▁octel	-12.0217
dividend	-12.0217
▁tightened	-12.023
▁statewide	-12.0232
▁bran	-12.0233
pending	-12.0235
▁spo	-12.0237
incent	-12.0243
▁flooding	-12.0244
school	-12.0247
▁universe	-12.0247
▁ital	-12.0247
▁successes	-12.0251
piece	-12.0252
▁ce	-12.0267
▁develops	-12.0272
▁garr	-12.0274
▁snow	-12.0278
▁fallout	-12.028
▁spouses	-12.028
kers	-12.0286
▁monte	-12.029
currency	-12.0292
▁clouds	-12.0307
▁fingers	-12.0308
▁repaired	-12.0316
sa	-12.033
▁bloody	-12.0331
away	-12.0341
secretary	-12.0342
▁approvals	-12.0342
▁advertise	-12.0349
▁roots	-12.0356
▁vis	-12.0361
▁dealerships	-12.0362
▁yards	-12.0378
▁layer	-12.038
▁chor	-12.0381
itude	-12.0383
spective	-12.0385
▁flaws	-12.0391
▁scare	-12.0401
crash	-12.0401
▁onerous	-12.0404
▁arise	-12.0406
▁elli	-12.0406
built	-12.0418
▁shorter	-12.0418
▁frustrati	-12.0422
ita	-12.0429
▁noble	-12.043
▁acquirer	-12.0434
▁charts	-12.0438
▁disp	-12.0441
gas	-12.0444
▁dal	-12.045
▁coll	-12.0455
▁mate	-12.0456
▁plains	-12.0466
▁hispanics	-12.0468
▁collecti	-12.0469
▁ki	-12.047
▁southe	-12.0474
earnings	-12.0475
especta	-12.0477
cht	-12.0477
idder	-12.048
area	-12.0483
raising	-12.0486
▁statutes	-12.0493
wage	-12.0494
▁porter	-12.0495
▁whitt	-12.0495
iary	-12.0497
▁tum	-12.0498
stone	-12.0504
▁identi	-12.0504
has	-12.0505
▁dominat	-12.0506
league	-12.0508
▁hon	-12.0508
och	-12.0534
bay	-12.0545
▁assassinations	-12.0548
▁weiss	-12.0553
cher	-12.0561
ulous	-12.0564
utter	-12.0564
▁topics	-12.0566
fashion	-12.0586
faced	-12.0593
season	-12.0593
chola	-12.0593
▁shocks	-12.0594
▁ros	-12.0597
▁backlogs	-12.06
▁beam	-12.0618
▁pot	-12.0622
▁hook	-12.0622
buses	-12.0623
▁dreams	-12.0624
casualty	-12.0625
bear	-12.0634
ack	-12.0638
▁executions	-12.064
▁bargains	-12.0642
was	-12.0642
▁jum	-12.0647
▁nic	-12.0648
omy	-12.0648
▁lyon	-12.0651
ere	-12.0667
▁bottles	-12.0669
▁labs	-12.0678
▁newsletters	-12.068
ors	-12.0686
hat	-12.0692
bound	-12.0692
▁existed	-12.0695
do	-12.0697
wave	-12.071
mi	-12.0714
uge	-12.0724
▁mcc	-12.0733
forward	-12.0733
filled	-12.0735
▁abuses	-12.0756
wned	-12.0767
dicated	-12.0773
▁mari	-12.0775
▁cre	-12.0777
own	-12.0784
page	-12.0799
▁sacr	-12.0801
comp	-12.0801
lived	-12.0807
elega	-12.081
oth	-12.0815
▁og	-12.0822
spoken	-12.0823
withstand	-12.0824
hanging	-12.0828
▁foes	-12.083
▁locally	-12.0834
▁deadlines	-12.0838
ud	-12.0842
▁tide	-12.0848
▁ide	-12.0871
comfort	-12.0882
▁bl	-12.0889
armed	-12.0891
▁aga	-12.0908
ybody	-12.0949
▁vacat	-12.0955
tal	-12.0957
▁stays	-12.0962
▁financiers	-12.0967
▁steppe	-12.0978
▁acknowledg	-12.098
gian	-12.0986
▁bowe	-12.0994
▁competes	-12.1001
▁implic	-12.1005
udio	-12.101
▁ea	-12.1014
▁pl	-12.1017
▁gri	-12.1034
ature	-12.1034
fre	-12.1035
inke	-12.1043
si	-12.1065
▁codes	-12.1078
bow	-12.1095
▁ron	-12.1104
dential	-12.111
▁cam	-12.1111
▁ph	-12.1119
court	-12.1129
date	-12.114
ivan	-12.1147
ven	-12.1172
▁pipelines	-12.1179
rick	-12.1183
▁gun	-12.1184
▁devo	-12.1184
pass	-12.1191
▁exposures	-12.1205
▁eliminati	-12.1208
und	-12.1211
ab	-12.1214
▁cur	-12.122
▁lor	-12.1227
ete	-12.123
▁ta	-12.1234
ress	-12.1245
▁situations	-12.1255
▁acqui	-12.1271
arbor	-12.1281
▁monitors	-12.1286
▁disco	-12.1294
cnb	-12.1301
arc	-12.131
▁forc	-12.1314
pe	-12.1317
net	-12.1324
arried	-12.1327
wel	-12.1332
▁lei	-12.1409
▁col	-12.1415
gh	-12.1418
ually	-12.142
lets	-12.1448
▁leo	-12.1451
▁commerciale	-12.1454
bates	-12.1464
▁advertis	-12.1467
▁bans	-12.1471
pur	-12.1476
igned	-12.1491
▁pulls	-12.1507
▁handl	-12.1514
scribed	-12.1524
orm	-12.1525
▁inno	-12.1538
▁mura	-12.1582
obe	-12.1598
ures	-12.1606
▁oblig	-12.161
▁paint	-12.1615
▁plac	-12.1617
ugh	-12.1621
▁ordina	-12.1626
▁seizure	-12.1627
▁hurdle	-12.163
▁guideline	-12.1633
▁implication	-12.1635
▁spouse	-12.1637
▁tremor	-12.1637
▁sideline	-12.1638
▁jean	-12.1642
▁mineral	-12.1643
▁joke	-12.1645
▁subscriber	-12.1648
▁projecting	-12.1659
▁measurement	-12.1661
▁ringer	-12.1663
▁custom	-12.1665
cid	-12.1667
will	-12.1668
nau	-12.167
ridge	-12.1672
roke	-12.1674
▁spect	-12.1684
await	-12.1684
▁adjuster	-12.1689
▁rocks	-12.1692
▁theatr	-12.1694
acted	-12.1703
pple	-12.1716
▁gor	-12.1717
ue	-12.172
▁potent	-12.1721
nitive	-12.1722
▁def	-12.1733
▁sche	-12.1733
▁deteriorat	-12.1741
▁unload	-12.1741
▁sho	-12.1741
insured	-12.1744
▁organi	-12.1756
▁deb	-12.1762
▁abolish	-12.1763
▁revamp	-12.1764
▁prosecut	-12.1766
ennet	-12.1767
att	-12.1769
▁depress	-12.1771
▁atmospher	-12.1771
▁exclusiv	-12.1775
▁analyz	-12.1776
▁integrate	-12.1777
▁complicate	-12.1777
▁observe	-12.1777
alysis	-12.1778
av	-12.1778
▁liquidate	-12.1779
▁conclud	-12.1781
▁terminate	-12.1785
▁craft	-12.179
▁potato	-12.1792
▁schwa	-12.1792
▁abrams	-12.1793
▁blo	-12.1794
▁lesk	-12.1795
▁continent	-12.1795
▁terroris	-12.1795
▁secretar	-12.1796
▁environmentalis	-12.1796
▁euro	-12.1799
▁mode	-12.18
▁guarant	-12.18
▁confront	-12.1801
▁absurd	-12.1801
▁abundant	-12.1801
▁aggregates	-12.1801
▁bacterium	-12.1801
▁brilliant	-12.1801
▁brouwer	-12.1801
▁burmah	-12.1801
▁clobbered	-12.1801
▁conasupo	-12.1801
▁dishonesty	-12.1801
▁elliott	-12.1801
▁escrow	-12.1801
▁euphoria	-12.1801
▁evacuation	-12.1801
▁faltered	-12.1801
▁fanfare	-12.1801
▁finkelstein	-12.1801
▁frequency	-12.1801
▁halloween	-12.1801
▁handicapped	-12.1801
▁hemorrhaging	-12.1801
▁ignorance	-12.1801
▁inaccurate	-12.1801
▁kuwait	-12.1801
▁manitoba	-12.1801
▁matthews	-12.1801
▁memorandum	-12.1801
▁merchandising	-12.1801
▁milwaukee	-12.1801
▁naczelnik	-12.1801
▁negligence	-12.1801
▁oversubscribed	-12.1801
▁pesetas	-12.1801
▁prerogatives	-12.1801
▁protocol	-12.1801
▁prototype	-12.1801
▁rafale	-12.1801
▁recipients	-12.1801
▁salmonella	-12.1801
▁schaeffer	-12.1801
▁shannon	-12.1801
▁skyrocketed	-12.1801
▁sociologist	-12.1801
▁susceptible	-12.1801
▁chestman	-12.1801
▁fossil	-12.1801
▁iafp	-12.1801
▁impetus	-12.1801
▁infection	-12.1801
▁misconduct	-12.1801
▁acadia	-12.1801
▁gallons	-12.1801
▁laundering	-12.1801
▁corsica	-12.1801
▁denounced	-12.1801
▁madrid	-12.1801
▁shirts	-12.1801
▁aliens	-12.1801
▁fraser	-12.1801
▁limbo	-12.1801
▁premises	-12.1801
▁boveri	-12.1801
▁palace	-12.1801
▁tritium	-12.1801
▁avondale	-12.1801
▁irrelevant	-12.1801
▁musicians	-12.1801
▁championship	-12.1801
▁stimulators	-12.1801
▁teagan	-12.1801
▁vault	-12.1801
ulenc	-12.1801
▁privatized	-12.1801
▁harmony	-12.1801
▁traub	-12.1801
▁salva	-12.1801
▁seldom	-12.1801
▁shelves	-12.1801
▁annuity	-12.1801
▁broderick	-12.1801
▁refineries	-12.1801
▁frightened	-12.1801
▁edgar	-12.1801
▁illusion	-12.1801
▁salvage	-12.1801
▁jackets	-12.1802
▁envy	-12.1802
▁posner	-12.1802
▁respectability	-12.1802
▁arctic	-12.1802
▁craze	-12.1802
▁doomed	-12.1802
▁leaks	-12.1802
▁fabrication	-12.1802
▁gatward	-12.1802
▁bleeding	-12.1802
▁dissent	-12.1802
▁remedy	-12.1802
▁medication	-12.1802
▁pleasure	-12.1802
▁egyptian	-12.1802
▁looms	-12.1802
▁blessing	-12.1802
▁civic	-12.1802
▁quina	-12.1802
▁coordination	-12.1802
▁tramp	-12.1802
▁realities	-12.1802
▁fdic	-12.1802
▁quack	-12.1803
▁traffickers	-12.1803
▁robbed	-12.1803
▁birthday	-12.1803
liberation	-12.1803
▁instrumentation	-12.1803
▁transatlantic	-12.1803
▁petco	-12.1804
▁reoffered	-12.1804
▁awareness	-12.1804
▁burke	-12.1804
▁redevelopment	-12.1804
▁fractionally	-12.1804
▁espn	-12.1804
▁shouting	-12.1804
▁vista	-12.1805
▁garage	-12.1805
▁allowance	-12.1805
▁specifications	-12.1805
▁erupted	-12.1805
▁posture	-12.1806
▁soften	-12.1806
▁outlawed	-12.1806
▁standpoint	-12.1806
▁underestimated	-12.1806
▁monster	-12.1806
▁concentration	-12.1806
▁coordinator	-12.1807
▁outfit	-12.1808
▁communis	-12.1809
▁ropes	-12.1809
▁trafficking	-12.181
orship	-12.181
▁guardian	-12.1811
▁ann	-12.1811
▁defenders	-12.1811
serted	-12.1811
▁geography	-12.1813
▁uncle	-12.1813
nition	-12.1813
▁doug	-12.1814
nik	-12.1814
▁avon	-12.1814
▁instruct	-12.1815
▁endure	-12.1815
cade	-12.1815
▁reruns	-12.1815
▁dassault	-12.1816
▁sagged	-12.1816
▁respectable	-12.1816
▁modified	-12.1816
▁doyle	-12.1816
▁slim	-12.1816
▁domination	-12.1817
▁basir	-12.1818
ame	-12.1818
▁sheep	-12.1819
▁enthusiast	-12.1819
▁atoms	-12.182
▁mania	-12.182
▁motiv	-12.1821
▁attraction	-12.1821
▁leery	-12.1821
▁gang	-12.1824
▁hung	-12.1826
▁fatal	-12.1827
▁stevenson	-12.1829
▁dodd	-12.1829
▁dunes	-12.183
▁preced	-12.1834
▁electronically	-12.1835
ampa	-12.1835
▁endangered	-12.1836
▁binge	-12.1836
▁fool	-12.1837
▁mink	-12.1838
▁whip	-12.1838
▁abolished	-12.184
▁coates	-12.1842
▁honesty	-12.1843
▁brewery	-12.1843
▁prisoner	-12.1844
▁divisi	-12.1845
mlin	-12.1846
▁contemplated	-12.1847
▁fray	-12.1847
scan	-12.1848
▁wedge	-12.1849
▁trademark	-12.185
▁recycling	-12.1852
tage	-12.1852
vacu	-12.1853
▁midyear	-12.1854
▁staging	-12.1855
▁dunn	-12.1855
▁trimming	-12.1857
▁unloading	-12.1861
▁embarrassed	-12.1862
piration	-12.1863
▁bak	-12.1864
▁conspired	-12.1865
▁prope	-12.1866
▁undo	-12.1868
▁addresses	-12.1868
▁curtailed	-12.1868
▁eroded	-12.187
▁renewal	-12.1871
▁roh	-12.1872
berge	-12.1872
▁disappeared	-12.1879
forman	-12.1882
▁meets	-12.1886
editors	-12.1888
▁taping	-12.1895
ord	-12.1897
▁morale	-12.1898
▁portrayed	-12.19
▁crushed	-12.1901
▁custo	-12.1904
▁patch	-12.1908
thod	-12.1909
▁atlas	-12.191
▁chasing	-12.1913
itz	-12.1914
ock	-12.1915
▁retreating	-12.1919
▁abused	-12.1919
▁dip	-12.192
verge	-12.1921
▁refined	-12.1925
▁soda	-12.1927
▁suitable	-12.1928
▁detr	-12.1928
have	-12.193
ications	-12.193
lator	-12.1932
▁incur	-12.1942
▁erod	-12.1942
▁efficiently	-12.1946
▁voter	-12.1946
▁deadly	-12.1947
▁rewarding	-12.1951
▁gangs	-12.1955
▁poorer	-12.1955
liner	-12.1956
▁carpeting	-12.1958
▁reti	-12.1958
kon	-12.1963
ashi	-12.1967
orted	-12.1969
▁jeans	-12.197
dget	-12.1974
istu	-12.1974
▁loaded	-12.1975
▁seizures	-12.1978
▁crashes	-12.1978
nic	-12.1979
umber	-12.1985
▁loser	-12.1987
hatch	-12.1991
▁obligat	-12.1994
▁libe	-12.1995
cycling	-12.1998
clude	-12.2002
▁zones	-12.2005
▁bullets	-12.2009
nly	-12.201
▁reins	-12.2018
emia	-12.2018
▁mph	-12.2021
▁associations	-12.2035
▁crystals	-12.2041
▁tenne	-12.2055
▁kre	-12.2057
ynth	-12.2058
▁excluded	-12.2066
▁defaulted	-12.2077
ione	-12.2081
▁switches	-12.2087
▁refiner	-12.2088
dela	-12.2089
nu	-12.209
rived	-12.2091
▁suites	-12.2093
▁expe	-12.2099
▁statut	-12.21
▁cul	-12.2103
▁oils	-12.2114
▁fro	-12.2117
▁ric	-12.2121
▁ems	-12.2123
▁rocket	-12.2128
▁ada	-12.2129
▁morg	-12.2145
ek	-12.216
▁disappears	-12.2161
nta	-12.2166
▁graduates	-12.2167
▁nora	-12.2173
▁mom	-12.2173
▁dep	-12.2177
▁someday	-12.22
▁privileges	-12.22
▁supermarkets	-12.22
write	-12.2207
oma	-12.2217
▁meh	-12.2224
▁appearances	-12.2237
rtific	-12.224
▁workout	-12.2245
▁weir	-12.2248
ma	-12.2259
▁worri	-12.2267
▁listings	-12.2278
▁cy	-12.2286
▁norw	-12.2297
▁drawings	-12.2302
ming	-12.2305
hita	-12.2309
elin	-12.2314
▁explosi	-12.2321
sm	-12.2322
self	-12.234
▁rocked	-12.2341
aren	-12.2341
solv	-12.2352
▁borders	-12.2359
▁deficienc	-12.2362
▁await	-12.2363
▁bla	-12.2369
▁physics	-12.2369
▁jer	-12.2376
consolidate	-12.2378
morning	-12.2379
▁duo	-12.242
▁cry	-12.2433
▁pose	-12.2434
▁gu	-12.2437
▁jets	-12.2438
▁lu	-12.244
▁redemptions	-12.2453
▁violent	-12.246
▁cree	-12.2462
emen	-12.2464
bes	-12.2465
▁burning	-12.2471
▁flags	-12.2494
▁accelerati	-12.2496
rising	-12.2496
▁truste	-12.2498
▁legislatures	-12.2517
our	-12.2528
equivalent	-12.2531
▁hamm	-12.2543
eater	-12.2554
▁reinvest	-12.2566
▁arbitra	-12.2569
style	-12.2574
ners	-12.2578
▁cas	-12.2586
▁architectur	-12.2589
▁averages	-12.2589
company	-12.2589
▁hil	-12.2595
ding	-12.2603
▁pros	-12.2615
eath	-12.2615
hes	-12.2622
▁younge	-12.2641
▁spec	-12.266
▁republics	-12.2669
nform	-12.2676
▁ken	-12.2701
▁mad	-12.2702
▁hom	-12.2702
duci	-12.2704
tel	-12.2705
▁brains	-12.2724
ssett	-12.2725
tended	-12.2725
▁connect	-12.2726
▁contin	-12.2742
nkers	-12.275
▁terri	-12.2755
▁compani	-12.2765
beat	-12.2766
▁editions	-12.2771
scru	-12.2779
opted	-12.2796
▁po	-12.2804
carbon	-12.281
▁chairm	-12.2815
▁boes	-12.2818
▁plu	-12.2821
▁holidays	-12.2829
▁trapped	-12.2833
▁closings	-12.2843
▁conservati	-12.2845
▁faste	-12.2847
gible	-12.2857
▁connections	-12.2896
guy	-12.2911
▁den	-12.2914
nprofit	-12.2914
unch	-12.2928
▁bee	-12.2931
ller	-12.2941
macy	-12.2949
▁autos	-12.2959
▁sear	-12.296
▁harr	-12.2966
lub	-12.2972
ac	-12.2977
consolidat	-12.2979
▁matche	-12.298
▁walters	-12.2984
▁alt	-12.2993
nkin	-12.3021
▁notable	-12.3024
▁ju	-12.305
▁recessions	-12.3051
cart	-12.3064
▁aw	-12.3068
▁pons	-12.3087
▁northe	-12.3092
licate	-12.3099
dual	-12.3107
dressed	-12.3108
▁lan	-12.3131
▁greed	-12.3132
▁objecti	-12.314
licit	-12.3162
ips	-12.3171
lesti	-12.3182
▁productive	-12.3193
new	-12.322
▁anticipati	-12.3227
▁carolinas	-12.3234
doubt	-12.3246
▁sid	-12.3247
▁technolog	-12.3269
▁resolutions	-12.3271
rdin	-12.3275
▁caller	-12.3279
tted	-12.3295
▁mos	-12.3313
anni	-12.3318
dents	-12.3323
▁distribut	-12.3332
esso	-12.3333
▁exp	-12.3359
▁shap	-12.3364
▁oas	-12.3373
▁neg	-12.3381
lvani	-12.3385
colla	-12.339
mall	-12.3441
▁fronts	-12.3455
▁coups	-12.3457
eck	-12.3475
rner	-12.3493
hai	-12.3496
▁motive	-12.3508
conne	-12.3522
▁vo	-12.3523
killed	-12.3531
▁que	-12.3544
▁feat	-12.355
▁hell	-12.3554
ished	-12.3571
sters	-12.3578
power	-12.3595
▁occasion	-12.3624
▁cub	-12.3626
▁speeds	-12.363
▁vessel	-12.3633
▁min	-12.3636
▁negotiator	-12.3637
▁olympic	-12.3641
▁instruction	-12.3641
▁shipment	-12.3644
upert	-12.3646
vati	-12.3652
▁portra	-12.3653
ung	-12.3668
anke	-12.3683
▁performer	-12.3683
▁mit	-12.37
▁manufactur	-12.3706
▁schedul	-12.3717
▁sigh	-12.3721
outh	-12.3722
▁carr	-12.3732
ceptive	-12.3733
▁recycl	-12.3747
▁roles	-12.3751
agan	-12.3755
▁finn	-12.3759
▁patien	-12.3759
▁endanger	-12.3762
▁inventor	-12.3767
▁revise	-12.3778
▁define	-12.378
mend	-12.3783
▁celebrati	-12.3793
rupted	-12.3796
▁egypt	-12.38
▁solv	-12.38
▁alabama	-12.3801
▁amortization	-12.3801
▁bizarre	-12.3801
▁bozell	-12.3801
▁celebrity	-12.3801
▁commerzbank	-12.3801
▁leipzig	-12.3801
▁namibia	-12.3801
▁peninsula	-12.3801
▁plumbing	-12.3801
▁refrigerators	-12.3801
▁resilience	-12.3801
▁sloppy	-12.3801
▁subdued	-12.3801
▁turnpike	-12.3801
▁incredible	-12.3801
▁libya	-12.3801
▁negligible	-12.3801
▁nonsense	-12.3801
▁parsow	-12.3801
▁legitimacy	-12.3801
▁decisive	-12.3801
▁uneasy	-12.3802
▁deliberations	-12.3802
▁unstable	-12.3802
▁translation	-12.3802
▁recital	-12.3802
▁novelist	-12.3803
▁aborted	-12.3803
▁cocaine	-12.3804
▁entrepreneurial	-12.3805
▁okla	-12.3805
▁managua	-12.3807
▁competitiveness	-12.3807
fford	-12.3809
▁flom	-12.381
gence	-12.3811
▁neutral	-12.3813
anning	-12.3814
▁benton	-12.3814
▁disclos	-12.3815
▁doubtful	-12.3821
▁runway	-12.3821
▁wooden	-12.3822
rett	-12.3828
caster	-12.383
▁greedy	-12.3832
gration	-12.3833
▁revol	-12.3835
▁coin	-12.3835
▁bail	-12.3837
▁southmark	-12.3845
▁reinvested	-12.3847
▁rode	-12.3849
▁lobb	-12.3851
▁jeopardy	-12.3853
▁predictably	-12.3858
urse	-12.3866
▁pete	-12.3877
▁domestically	-12.3878
▁rear	-12.3892
idential	-12.3903
turb	-12.3911
nior	-12.3914
drum	-12.3919
▁outsider	-12.3921
▁concert	-12.3931
▁warehouses	-12.3941
imb	-12.3948
▁wasted	-12.3959
▁tightly	-12.396
▁balloting	-12.3968
▁environments	-12.397
▁strengths	-12.3974
span	-12.398
rgu	-12.3988
brie	-12.3991
ribe	-12.3994
ance	-12.3994
▁frustrating	-12.3995
ledg	-12.4007
loud	-12.4019
okes	-12.4028
artner	-12.4033
amir	-12.4035
▁watche	-12.4058
▁permissi	-12.4062
▁bureaus	-12.4066
▁bas	-12.407
▁shifts	-12.4073
▁cli	-12.4073
▁manu	-12.4085
▁sim	-12.4086
cting	-12.4088
▁beg	-12.409
▁subordinates	-12.4097
▁retr	-12.4099
▁compos	-12.4103
other	-12.4107
aging	-12.4114
ieve	-12.4116
eviat	-12.4144
▁loa	-12.4154
▁barne	-12.4166
inger	-12.4167
lum	-12.4177
▁tag	-12.418
▁format	-12.4192
▁kell	-12.4199
ning	-12.4208
▁cubans	-12.4212
lies	-12.4254
anc	-12.4257
▁ton	-12.4278
usan	-12.4281
▁thu	-12.4297
▁backgrounds	-12.4297
▁rage	-12.43
oc	-12.4303
▁receiver	-12.4307
sisted	-12.4308
essel	-12.4324
▁chu	-12.4356
▁reflecti	-12.4388
▁fr	-12.4395
eb	-12.4402
▁digs	-12.4406
▁conclusions	-12.4414
anker	-12.4428
▁hol	-12.4433
▁conf	-12.4434
▁rout	-12.4441
compet	-12.4453
ls	-12.4463
andle	-12.4467
ngton	-12.4477
dering	-12.4478
elve	-12.4485
▁aba	-12.4492
▁tail	-12.4502
▁folk	-12.453
ea	-12.4537
art	-12.4542
▁corporat	-12.4542
▁mice	-12.4548
▁reads	-12.4568
▁soul	-12.4594
▁processe	-12.4603
quin	-12.4606
▁ind	-12.4616
val	-12.4618
▁focuse	-12.4623
erch	-12.4623
fortunate	-12.4636
▁heavie	-12.464
icken	-12.4675
uted	-12.4687
egory	-12.4707
▁committ	-12.4712
urb	-12.4727
▁callable	-12.477
▁emi	-12.477
arlie	-12.4785
fen	-12.4801
▁financings	-12.4805
▁sens	-12.4818
▁emergenc	-12.4826
lvin	-12.4835
▁kat	-12.4838
pu	-12.4839
mpan	-12.4859
appointed	-12.4868
ullin	-12.4874
anton	-12.4878
room	-12.4879
▁alb	-12.4882
rli	-12.4883
▁tu	-12.489
▁centur	-12.4923
▁adj	-12.493
last	-12.4935
runk	-12.4942
isc	-12.4955
ird	-12.4957
ady	-12.4971
asset	-12.4986
▁rub	-12.4995
alley	-12.5018
tired	-12.5019
ath	-12.5022
lm	-12.5042
etch	-12.5051
▁orderly	-12.5053
amp	-12.51
ttle	-12.5109
cia	-12.5118
▁freed	-12.512
oro	-12.5136
▁justices	-12.514
minal	-12.5142
▁forth	-12.5156
cow	-12.5185
terson	-12.5194
stated	-12.5196
▁lett	-12.5198
float	-12.5202
ipped	-12.5224
tly	-12.5229
rog	-12.5253
bri	-12.5263
phis	-12.5269
▁searche	-12.5317
▁pil	-12.5319
▁sav	-12.5321
terpi	-12.534
▁adver	-12.535
race	-12.5359
inna	-12.5359
ports	-12.5373
▁ris	-12.5379
▁totals	-12.5407
▁taxed	-12.5413
▁defenses	-12.5419
liver	-12.5426
▁ai	-12.5438
▁intens	-12.5442
▁wis	-12.5448
eat	-12.5463
▁pois	-12.5466
▁thoughts	-12.5475
cted	-12.5478
▁eth	-12.5484
ilab	-12.5486
which	-12.5502
appearance	-12.552
▁ri	-12.5551
ffe	-12.5569
reak	-12.5576
▁rubi	-12.559
▁edu	-12.5616
eemed	-12.5627
this	-12.5646
rds	-12.565
▁professors	-12.5656
▁unity	-12.5669
ro	-12.5695
▁fas	-12.57
ophi	-12.5727
would	-12.5731
ger	-12.5732
▁impli	-12.5739
iversity	-12.5746
ume	-12.5764
▁inch	-12.5767
gatt	-12.577
▁dd	-12.5781
▁ero	-12.5787
profit	-12.579
nwa	-12.5801
ozen	-12.5827
scu	-12.5829
▁assur	-12.5842
▁severa	-12.5842
lacks	-12.5861
oned	-12.5863
▁fai	-12.5884
hang	-12.5892
coup	-12.5894
via	-12.5935
legally	-12.5937
▁translat	-12.5946
▁val	-12.5951
vy	-12.5976
ida	-12.5988
br	-12.6003
▁zo	-12.6007
▁res	-12.6024
ega	-12.6026
pression	-12.6048
nio	-12.6053
urt	-12.6072
▁numbered	-12.6078
▁seniors	-12.6087
ggs	-12.6097
▁warehouse	-12.6124
▁plaintiff	-12.6132
ban	-12.6147
undan	-12.6151
▁advertiser	-12.6154
▁prediction	-12.6164
act	-12.6177
▁rea	-12.6223
▁swe	-12.6227
▁demonstrat	-12.6228
about	-12.6242
tions	-12.6251
▁plummet	-12.6264
▁edw	-12.627
▁notif	-12.6283
▁drastic	-12.6299
▁aeroflot	-12.6301
▁chaotic	-12.6301
▁headaches	-12.6301
▁dillon	-12.6302
▁influ	-12.6302
▁equation	-12.6303
▁arou	-12.6314
ussi	-12.632
cou	-12.6329
▁profitably	-12.6343
ps	-12.6349
arb	-12.6374
▁hir	-12.638
hnic	-12.639
▁massage	-12.6411
mbo	-12.6424
eged	-12.6428
randa	-12.6438
ass	-12.645
▁imm	-12.6452
tt	-12.6452
lation	-12.6467
▁char	-12.6468
▁puni	-12.6472
ks	-12.6473
rows	-12.6478
rama	-12.6488
rish	-12.6529
weat	-12.6537
▁wel	-12.6551
termed	-12.6556
▁examin	-12.6572
ansa	-12.6588
▁norma	-12.6602
arts	-12.6626
▁fol	-12.6636
lind	-12.6638
tri	-12.6641
rich	-12.6644
▁beth	-12.6653
▁besi	-12.6697
▁hasti	-12.6729
ee	-12.6733
tom	-12.6786
▁workings	-12.6788
ware	-12.6818
hief	-12.6847
itan	-12.6861
ided	-12.6875
▁blues	-12.688
erson	-12.6901
ctic	-12.6915
▁ari	-12.6918
ught	-12.6921
thr	-12.6926
▁arter	-12.6929
▁behav	-12.6931
armon	-12.6932
heir	-12.6955
▁technologi	-12.6959
▁hu	-12.6963
▁fri	-12.6996
white	-12.7009
une	-12.7035
▁employe	-12.7049
saul	-12.7112
ds	-12.7166
▁terr	-12.7175
essed	-12.723
rt	-12.7237
odu	-12.7242
ins	-12.7248
ential	-12.725
ments	-12.7264
rat	-12.7288
itali	-12.729
▁educat	-12.7292
orer	-12.731
phone	-12.7335
▁predictabl	-12.7342
▁les	-12.7397
▁magni	-12.74
pare	-12.7411
sta	-12.7413
▁accords	-12.7445
eth	-12.7447
▁nin	-12.7457
niversa	-12.7462
says	-12.7471
gaining	-12.7476
▁commons	-12.75
▁im	-12.7501
tual	-12.751
▁creati	-12.7536
▁cred	-12.7538
nerable	-12.7544
ailed	-12.7568
rip	-12.7573
▁attac	-12.758
mmi	-12.7593
were	-12.7595
▁dro	-12.7625
oph	-12.7637
▁prints	-12.7642
orry	-12.7647
▁intensi	-12.7653
▁dela	-12.7677
orgi	-12.7679
ravel	-12.7688
▁medic	-12.7692
▁mas	-12.7724
▁royalt	-12.7726
lor	-12.7741
aving	-12.7755
▁unifi	-12.777
eig	-12.7788
ploye	-12.7792
aver	-12.7806
▁ro	-12.786
sp	-12.7875
▁shor	-12.79
▁bat	-12.7903
uting	-12.7909
osses	-12.7924
uck	-12.7941
▁closes	-12.7941
ggest	-12.7982
coast	-12.7998
▁reli	-12.8023
▁bene	-12.8082
ned	-12.8105
▁ark	-12.8105
pper	-12.8123
ific	-12.8182
ink	-12.8275
elf	-12.8277
▁hut	-12.8279
▁cara	-12.8289
ainst	-12.8289
nza	-12.8294
ican	-12.8331
hs	-12.8332
erre	-12.8348
ebates	-12.8375
voke	-12.8376
hed	-12.8391
their	-12.8414
▁examples	-12.847
qui	-12.8479
gu	-12.8489
dem	-12.85
▁emer	-12.8542
setting	-12.858
▁beings	-12.8585
ediat	-12.859
inking	-12.8593
employ	-12.8632
▁diversi	-12.8644
▁lip	-12.8647
etical	-12.8649
bre	-12.8652
▁cont	-12.8652
ria	-12.8653
roadway	-12.8659
sight	-12.8668
ennis	-12.8688
mally	-12.869
pt	-12.8722
▁cit	-12.875
▁unus	-12.8764
ndem	-12.877
gle	-12.8778
▁gener	-12.8785
ttled	-12.8849
arned	-12.8853
ooking	-12.887
▁tha	-12.8898
▁sy	-12.8907
dying	-12.8939
employe	-12.9008
▁spu	-12.902
urry	-12.9025
tude	-12.9027
arly	-12.903
▁passi	-12.9075
cter	-12.9093
aged	-12.9149
▁trusts	-12.916
▁looming	-12.9163
kf	-12.9192
▁undertak	-12.9215
wart	-12.9223
abo	-12.9226
sured	-12.9255
sul	-12.927
ano	-12.9276
▁deliveri	-12.9282
liv	-12.9321
tional	-12.9332
umb	-12.9336
nes	-12.9337
▁conv	-12.9363
fined	-12.9381
▁mea	-12.9398
sell	-12.9422
ommod	-12.9423
smo	-12.9425
who	-12.9444
▁ted	-12.9452
ix	-12.9461
torial	-12.9466
▁ink	-12.9466
▁ok	-12.9467
▁passe	-12.9486
gee	-12.9511
had	-12.9533
my	-12.9578
ility	-12.9579
▁unl	-12.9582
lli	-12.9585
akes	-12.959
pil	-12.9607
▁geograph	-12.9609
▁elephant	-12.9634
▁dicta	-12.9634
not	-12.9638
ub	-12.964
equeste	-12.9654
▁certifi	-12.9658
ating	-12.968
rof	-12.9689
▁ko	-12.9695
▁tes	-12.97
aff	-12.9713
nnel	-12.9733
oge	-12.9758
▁racke	-12.9761
▁ups	-12.9783
rial	-12.9803
ast	-12.9807
layoffs	-12.9837
pplies	-12.9906
ovi	-12.9925
equest	-12.9926
trig	-12.9929
eh	-12.9982
▁sus	-12.9989
ncou	-12.999
▁eco	-12.9999
umbe	-13.002
ga	-13.002
▁sham	-13.0022
▁restructurings	-13.0027
di	-13.0032
ties	-13.0034
ery	-13.0071
▁tou	-13.009
owe	-13.0091
rmed	-13.0101
urges	-13.0103
been	-13.0119
sed	-13.0122
ec	-13.0139
rink	-13.0166
▁cheape	-13.019
ess	-13.0194
▁intr	-13.0242
oke	-13.0242
ace	-13.0281
etal	-13.0292
▁radi	-13.0301
▁applie	-13.0307
▁necess	-13.0375
till	-13.0379
anto	-13.0389
▁audi	-13.0406
epression	-13.0412
hwart	-13.0419
site	-13.0424
arrow	-13.0444
gain	-13.0457
ophe	-13.0462
enters	-13.0469
stin	-13.0478
andles	-13.0499
trad	-13.0522
inc	-13.0544
cked	-13.0547
orti	-13.0565
▁administrat	-13.0571
igu	-13.0603
einh	-13.0633
aw	-13.0657
mir	-13.0659
▁spen	-13.0684
▁miner	-13.07
nth	-13.0701
mann	-13.08
onto	-13.0805
▁cr	-13.0824
rvin	-13.0841
rent	-13.0863
▁cente	-13.0878
▁legislat	-13.0891
▁esse	-13.0891
affe	-13.0902
nim	-13.0913
stance	-13.0917
reed	-13.0931
lte	-13.0937
▁stag	-13.0937
mal	-13.096
eland	-13.0991
ored	-13.1006
irs	-13.102
▁gou	-13.1042
cru	-13.1067
▁illustrat	-13.1091
erger	-13.1101
sit	-13.112
▁ci	-13.1134
▁dat	-13.1136
▁pen	-13.1169
pane	-13.1172
ecision	-13.1175
cludes	-13.1181
ivid	-13.1183
now	-13.1204
▁dol	-13.1216
ncent	-13.1225
tson	-13.1276
pill	-13.1312
presents	-13.1317
▁bru	-13.1371
wo	-13.1382
▁ala	-13.1383
nator	-13.1389
ight	-13.1404
▁fortun	-13.1405
ason	-13.1408
▁regist	-13.1418
asb	-13.1432
imer	-13.1473
▁ap	-13.1475
nair	-13.1494
trong	-13.1512
ystems	-13.1551
▁controlle	-13.1556
cribe	-13.1606
hunt	-13.1608
peal	-13.1633
▁sentenc	-13.1635
nz	-13.168
▁pate	-13.1681
oil	-13.1682
▁ami	-13.1728
cedes	-13.1729
apt	-13.1735
nable	-13.1745
rell	-13.1748
▁ally	-13.1772
▁ste	-13.178
▁ow	-13.1796
pointing	-13.1803
▁dre	-13.1803
uis	-13.184
anda	-13.1865
president	-13.1869
▁dra	-13.1906
ens	-13.199
jami	-13.2016
▁basi	-13.2029
ove	-13.2041
itional	-13.2188
▁minis	-13.2222
pert	-13.2232
rg	-13.2234
active	-13.2294
gai	-13.2312
▁aust	-13.2325
supp	-13.2326
▁tan	-13.2346
ended	-13.235
two	-13.2355
ow	-13.2394
▁welc	-13.2396
amaic	-13.2397
ncy	-13.2405
ang	-13.2419
estin	-13.2423
▁distin	-13.2424
ked	-13.2447
ends	-13.2465
try	-13.2472
acker	-13.2493
eling	-13.2498
arle	-13.2523
yen	-13.2527
ploy	-13.2571
russel	-13.2578
vigo	-13.2606
▁clas	-13.2607
▁subs	-13.2614
▁switche	-13.2621
ded	-13.2625
cy	-13.2709
efs	-13.2799
uber	-13.2808
pet	-13.2835
▁confi	-13.2869
▁compan	-13.2891
che	-13.2902
▁ens	-13.2907
sea	-13.2937
oes	-13.2981
ten	-13.3042
▁exi	-13.3091
▁containe	-13.3097
hears	-13.3126
shares	-13.3126
▁toy	-13.3135
▁statu	-13.3148
sup	-13.322
▁excit	-13.3224
tched	-13.3241
osion	-13.3242
lunt	-13.3262
helps	-13.3266
titute	-13.3281
▁ji	-13.3299
when	-13.3313
gan	-13.3321
▁lon	-13.3327
su	-13.3335
ure	-13.3346
fter	-13.3355
nsure	-13.3362
▁prec	-13.3365
stones	-13.3408
ssy	-13.345
▁dut	-13.3452
▁persi	-13.3467
first	-13.3508
iologi	-13.3526
▁lau	-13.3535
▁excite	-13.3539
▁bets	-13.3544
▁seve	-13.3554
ina	-13.356
after	-13.3662
lid	-13.3692
years	-13.3724
▁clou	-13.3794
times	-13.3809
▁precis	-13.3816
tory	-13.3822
dd	-13.3834
aked	-13.3836
nationally	-13.3844
▁terminat	-13.3867
hook	-13.3929
xer	-13.393
dill	-13.3944
▁skill	-13.3976
▁mcd	-13.3977
firmed	-13.4003
ova	-13.4017
rrible	-13.404
▁ages	-13.4106
ordinate	-13.4109
only	-13.4142
dol	-13.4151
ief	-13.419
uters	-13.4191
▁interven	-13.4221
bst	-13.4223
pate	-13.427
▁contr	-13.4322
ambr	-13.4359
▁regi	-13.4363
▁likel	-13.437
ai	-13.4378
▁corps	-13.4391
could	-13.4442
otel	-13.4462
sales	-13.4465
ior	-13.4483
▁impe	-13.4531
ear	-13.4533
udi	-13.4593
▁jun	-13.4604
mounted	-13.4632
▁minimills	-13.4634
ence	-13.4644
uce	-13.4654
▁lenses	-13.4678
▁disc	-13.4717
iss	-13.475
ements	-13.4751
nk	-13.4752
bis	-13.4755
▁tex	-13.4818
▁reas	-13.4834
rtz	-13.4857
peat	-13.4861
ption	-13.4862
fice	-13.4932
pened	-13.4939
yman	-13.4973
ala	-13.5032
imit	-13.5049
atel	-13.5056
stration	-13.5057
▁shou	-13.5073
table	-13.516
lab	-13.5201
▁ft	-13.5237
▁competi	-13.5243
there	-13.5248
sat	-13.5263
ckle	-13.5273
patch	-13.5283
ifi	-13.5288
kla	-13.5306
epo	-13.5332
ickers	-13.5348
dono	-13.5396
os	-13.5396
rage	-13.5431
▁fer	-13.5431
unting	-13.5447
ssis	-13.5451
▁subscri	-13.5496
▁fort	-13.5512
og	-13.5515
ared	-13.5542
mfor	-13.5602
ivers	-13.5645
▁weake	-13.5659
many	-13.571
tchin	-13.5719
vs	-13.5723
tu	-13.5741
▁mons	-13.5746
bot	-13.5768
nspired	-13.577
▁comm	-13.5773
▁prepa	-13.5778
hur	-13.578
▁participat	-13.5789
aded	-13.5821
eric	-13.5836
ush	-13.586
res	-13.5887
ings	-13.591
▁implie	-13.5918
sor	-13.5924
ncr	-13.5939
ug	-13.5954
rnal	-13.5983
iling	-13.601
ag	-13.6018
▁lea	-13.6063
scription	-13.6064
cil	-13.6116
ange	-13.6169
low	-13.618
aster	-13.6202
alo	-13.6202
▁importe	-13.6206
lan	-13.6215
bag	-13.6236
anne	-13.6285
db	-13.6321
government	-13.6326
▁critici	-13.633
▁consequen	-13.6367
▁sits	-13.639
smal	-13.643
ems	-13.6431
lice	-13.6449
fer	-13.6474
▁licens	-13.6483
▁exte	-13.6485
lish	-13.6498
uing	-13.6518
ff	-13.6524
iming	-13.6559
▁boug	-13.6572
▁hond	-13.6583
such	-13.6583
▁corne	-13.6654
ran	-13.6659
york	-13.6704
▁backe	-13.6707
ids	-13.672
▁ham	-13.672
con	-13.6727
ppears	-13.6742
rowing	-13.6745
.-	-13.6808
ghes	-13.6812
▁incomes	-13.692
va	-13.6941
stat	-13.6955
unt	-13.6976
▁institut	-13.6997
companies	-13.7023
llin	-13.7036
unit	-13.7065
dust	-13.7113
▁gat	-13.7114
federal	-13.7131
af	-13.7147
ratio	-13.7156
ased	-13.721
alco	-13.7289
into	-13.7303
may	-13.7317
naut	-13.7336
mire	-13.7342
ire	-13.7345
▁misse	-13.7367
usted	-13.7382
oration	-13.7386
ease	-13.7477
hu	-13.7479
enfo	-13.7491
▁promoti	-13.7515
ived	-13.754
while	-13.7572
tr	-13.7584
uard	-13.7588
▁wildl	-13.7591
▁controll	-13.7602
han	-13.7662
hell	-13.7687
▁ig	-13.77
▁sever	-13.7704
tled	-13.7737
ot	-13.775
ura	-13.7788
oney	-13.7823
sel	-13.7854
▁heir	-13.7862
▁swee	-13.793
tone	-13.7944
ye	-13.7947
▁perce	-13.795
▁cf	-13.7965
pile	-13.7978
▁sagg	-13.7989
sees	-13.8054
▁spi	-13.806
za	-13.8089
▁arro	-13.8118
under	-13.8126
lose	-13.8133
nobl	-13.8148
▁brig	-13.8154
hr	-13.8184
eeling	-13.8186
▁opti	-13.8207
▁tit	-13.8248
caus	-13.8249
ind	-13.8354
▁wid	-13.8367
▁amend	-13.8369
aring	-13.837
cations	-13.838
people	-13.838
▁modifi	-13.8388
las	-13.8396
ecent	-13.8436
▁cal	-13.8485
tened	-13.8485
longe	-13.8488
▁comb	-13.8492
▁termina	-13.8519
▁cla	-13.8529
▁fore	-13.8562
zi	-13.8587
ferred	-13.8596
rod	-13.8628
erick	-13.8635
she	-13.8668
gus	-13.8708
bin	-13.8792
lico	-13.8803
ray	-13.8818
▁vin	-13.8819
pter	-13.8838
oking	-13.8858
rim	-13.8877
ravele	-13.8896
cents	-13.8899
reating	-13.8954
what	-13.8954
investors	-13.9013
rtin	-13.902
unti	-13.9054
▁rus	-13.913
rade	-13.9134
amil	-13.9135
▁frie	-13.9142
▁respons	-13.9155
iko	-13.9179
bros	-13.9272
take	-13.9294
▁bot	-13.9334
▁arbitrat	-13.9364
rer	-13.9373
llo	-13.9379
mitted	-13.9418
prices	-13.944
ization	-13.9455
ep	-13.9535
rum	-13.9548
▁informa	-13.9555
funding	-13.9572
see	-13.9583
urs	-13.9614
gl	-13.9622
repaid	-13.9625
tified	-13.9656
ists	-13.9685
uts	-13.9688
yesterday	-13.9723
▁surgi	-13.9731
▁heavi	-13.974
securities	-13.9741
row	-13.9777
▁indict	-13.9797
au	-13.9811
onner	-13.9813
ering	-13.9835
nner	-13.9901
par	-13.9957
late	-13.9966
▁pur	-13.9972
les	-13.9976
hy	-14.0016
fi	-14.0038
tlantic	-14.0088
ging	-14.0109
nfel	-14.0117
vid	-14.0125
rlin	-14.0145
▁topi	-14.0207
lu	-14.0214
alty	-14.0238
ane	-14.0308
special	-14.0389
▁ye	-14.0401
▁depr	-14.0438
nstitute	-14.0441
custome	-14.0568
change	-14.0595
crui	-14.0598
dall	-14.061
rm	-14.068
just	-14.069
enf	-14.0692
bu	-14.0726
▁tel	-14.0795
▁buffe	-14.0799
you	-14.08
three	-14.0806
ber	-14.082
▁unil	-14.0833
rch	-14.0856
ssion	-14.087
months	-14.0915
cumulat	-14.096
ically	-14.1001
nc	-14.1037
▁hat	-14.1043
olm	-14.1076
ilt	-14.1089
▁conver	-14.109
uffer	-14.1106
▁cu	-14.1127
tan	-14.1128
▁stri	-14.115
▁gio	-14.1167
duc	-14.1202
financial	-14.1233
kur	-14.126
again	-14.1292
cem	-14.1294
pared	-14.132
through	-14.1356
oy	-14.137
cable	-14.1385
moving	-14.1392
nda	-14.1424
cr	-14.1426
much	-14.1449
▁op	-14.145
make	-14.1516
say	-14.1526
ffer	-14.1533
note	-14.1535
ort	-14.1588
unk	-14.1628
▁confe	-14.1633
▁thre	-14.1651
american	-14.166
erman	-14.1662
ushed	-14.1727
aten	-14.1746
cutt	-14.1749
emporary	-14.1777
riers	-14.1788
tie	-14.1804
lla	-14.1828
buy	-14.1877
chairman	-14.1906
wed	-14.1956
olar	-14.1962
▁selecti	-14.2016
bins	-14.2017
efore	-14.2032
ead	-14.2069
▁servi	-14.2075
gained	-14.2076
ody	-14.208
brica	-14.2092
cus	-14.2099
scr	-14.2123
aria	-14.2155
▁insiste	-14.2181
▁investigati	-14.2224
program	-14.2274
located	-14.2392
industry	-14.2396
▁narrowe	-14.2397
lac	-14.2398
easing	-14.242
next	-14.2448
▁deu	-14.2452
nated	-14.2549
ected	-14.2551
▁theirs	-14.2566
osed	-14.258
bility	-14.2591
mp	-14.2606
major	-14.2667
edding	-14.271
phi	-14.2716
orman	-14.2719
leo	-14.2744
urve	-14.2785
rts	-14.2804
them	-14.2804
did	-14.2924
iv	-14.2941
big	-14.2949
dan	-14.295
rates	-14.3016
ights	-14.3191
quebec	-14.3236
isting	-14.3253
ued	-14.3257
ett	-14.3353
▁fet	-14.337
etta	-14.3451
officials	-14.3474
umm	-14.3583
niv	-14.3586
oyalty	-14.3593
▁ut	-14.364
ike	-14.3642
hair	-14.3672
omer	-14.3691
fairly	-14.371
ttered	-14.3735
money	-14.3817
tate	-14.3824
ounced	-14.3842
before	-14.3852
scow	-14.3899
▁delic	-14.391
stocks	-14.3936
iver	-14.3995
▁appropriat	-14.4012
ars	-14.4028
▁contrac	-14.4032
▁wy	-14.4033
since	-14.4042
tand	-14.4116
let	-14.4188
▁conso	-14.422
▁relati	-14.4269
cie	-14.4292
ested	-14.4306
ecommunications	-14.431
older	-14.4335
urning	-14.4356
ense	-14.437
resident	-14.4391
analysts	-14.44
ontinued	-14.4471
du	-14.4486
ama	-14.4514
ounting	-14.4571
high	-14.4591
ansion	-14.4599
mers	-14.4638
dur	-14.4649
boy	-14.467
cision	-14.4676
▁abs	-14.4676
▁nea	-14.4692
eni	-14.4762
ledged	-14.4818
pre	-14.4829
tensive	-14.4851
hough	-14.4887
ged	-14.4975
ntly	-14.5011
rcel	-14.5014
tract	-14.5021
plan	-14.5024
japanese	-14.5025
▁berli	-14.5045
▁brin	-14.5056
illing	-14.5084
eptive	-14.5142
phen	-14.5147
▁revo	-14.5211
firm	-14.5252
covered	-14.5268
▁cha	-14.5299
made	-14.5308
▁supporte	-14.5385
compete	-14.5411
ovision	-14.5415
dle	-14.5421
mber	-14.5433
eferred	-14.545
anging	-14.5495
overn	-14.5517
ngu	-14.5546
▁reco	-14.5557
tta	-14.556
owing	-14.5567
ken	-14.561
▁bou	-14.5672
rre	-14.573
chin	-14.5732
▁colla	-14.5784
▁vit	-14.582
public	-14.5843
ail	-14.5869
rest	-14.5882
rried	-14.5883
between	-14.5924
enn	-14.5953
lower	-14.6013
tness	-14.6017
umi	-14.6027
shu	-14.6059
veraged	-14.608
leb	-14.6148
chi	-14.6201
▁acco	-14.6244
bust	-14.6315
ple	-14.6339
international	-14.6378
nzo	-14.6383
dro	-14.6471
toma	-14.6472
gs	-14.6509
rous	-14.6525
▁highl	-14.6593
live	-14.6594
revenue	-14.6595
▁fir	-14.6599
▁genera	-14.6605
born	-14.6626
average	-14.6641
oyer	-14.6666
world	-14.6673
congress	-14.6683
noon	-14.6716
days	-14.6725
▁bow	-14.6749
tbacks	-14.6767
accord	-14.6771
work	-14.6785
general	-14.6815
gio	-14.6815
recent	-14.6853
vat	-14.6868
eith	-14.6874
▁pic	-14.6906
▁stre	-14.6913
▁smalle	-14.6959
does	-14.7041
aq	-14.7059
funds	-14.7089
eased	-14.723
▁ado	-14.7233
hb	-14.7347
▁cel	-14.7359
fied	-14.7364
atta	-14.7483
inland	-14.7575
mmod	-14.7576
edes	-14.7628
ou	-14.7638
rise	-14.7649
inning	-14.765
woo	-14.7688
both	-14.7717
sc	-14.773
should	-14.7837
cording	-14.7872
custom	-14.7878
reported	-14.7914
ssed	-14.7942
marke	-14.7946
another	-14.7951
▁stat	-14.7993
markets	-14.8018
sive	-14.8047
ntum	-14.8098
seque	-14.8113
dman	-14.8158
includ	-14.8176
hit	-14.8215
▁kr	-14.8225
▁conse	-14.8253
cken	-14.8283
des	-14.8311
mia	-14.8312
eman	-14.8373
ram	-14.845
rrespon	-14.8458
ression	-14.8492
uses	-14.8527
higher	-14.8534
lowing	-14.8536
coll	-14.8559
department	-14.8577
▁amb	-14.8683
als	-14.8701
offer	-14.8725
adil	-14.8731
operations	-14.8732
hei	-14.8741
japan	-14.88
thing	-14.8814
search	-14.8875
wor	-14.8919
ounded	-14.8924
fit	-14.8976
dly	-14.8976
nies	-14.9035
▁fli	-14.9049
foreign	-14.9085
dent	-14.9088
lume	-14.9105
tuck	-14.9129
economic	-14.913
▁capitaliz	-14.9166
gist	-14.9196
ells	-14.9233
evi	-14.9247
pay	-14.9258
lines	-14.9313
cutive	-14.9332
total	-14.9333
eme	-14.9341
▁mot	-14.937
rlie	-14.9452
chase	-14.9475
▁typ	-14.9478
ics	-14.9485
▁reac	-14.9542
tag	-14.9545
alk	-14.956
gin	-14.956
fel	-14.9566
▁negl	-14.9665
debt	-14.9686
trade	-14.9704
bid	-14.9779
earns	-14.9801
however	-14.9806
iced	-14.9807
system	-14.9859
tistic	-14.9874
large	-14.9881
nally	-14.9921
othe	-14.9922
nship	-14.9927
good	-14.9942
certain	-14.9983
nny	-15.0001
bed	-15.0006
gic	-15.0012
common	-15.0052
nest	-15.006
tat	-15.0071
maker	-15.009
increase	-15.009
▁bor	-15.0169
earing	-15.0185
report	-15.0203
omet	-15.0238
ania	-15.0274
rit	-15.03
rl	-15.03
lling	-15.0304
fully	-15.0333
pi	-15.0357
▁seri	-15.036
vi	-15.0373
nation	-15.0384
eries	-15.0444
elli	-15.0491
being	-15.0496
hout	-15.0508
rif	-15.0529
ewer	-15.054
rally	-15.0569
ined	-15.0606
pun	-15.0641
▁tow	-15.0654
▁addi	-15.0691
rst	-15.0713
tories	-15.0764
eating	-15.0766
amo	-15.0796
nob	-15.0862
emption	-15.0882
pit	-15.091
llen	-15.0921
several	-15.0949
immed	-15.0981
close	-15.0997
call	-15.1005
ently	-15.1051
tho	-15.1059
growth	-15.1064
mple	-15.1115
ein	-15.113
▁sca	-15.1187
hist	-15.1194
sch	-15.1194
past	-15.1352
edia	-15.1375
▁pos	-15.1396
five	-15.1426
rter	-15.1434
plans	-15.1489
second	-15.1519
rid	-15.1523
minati	-15.1581
cu	-15.1585
▁ve	-15.1589
ready	-15.1591
drew	-15.1646
▁exclu	-15.1646
▁circulati	-15.1653
eed	-15.167
▁domina	-15.1671
rand	-15.1683
cl	-15.17
▁faci	-15.173
ebo	-15.1746
current	-15.1749
evised	-15.1786
aim	-15.1788
ounce	-15.18
▁bett	-15.1804
number	-15.19
kas	-15.1975
▁ic	-15.2095
inn	-15.2117
sent	-15.2149
never	-15.2158
▁opt	-15.2192
mad	-15.2249
director	-15.2303
▁han	-15.2341
concern	-15.235
paper	-15.2353
isher	-15.2369
few	-15.2374
treasury	-15.2475
sold	-15.2504
help	-15.2512
tenni	-15.2539
service	-15.2542
▁hone	-15.2574
iability	-15.2579
▁hid	-15.2584
▁smi	-15.2605
▁evaluati	-15.2611
▁mur	-15.2629
imum	-15.2695
california	-15.2702
zard	-15.2791
banks	-15.2798
▁em	-15.2852
▁cen	-15.2854
bill	-15.2893
▁marl	-15.2899
dds	-15.295
lt	-15.2956
contract	-15.297
rical	-15.2987
esti	-15.3009
former	-15.3021
▁unan	-15.3035
ht	-15.3065
arn	-15.3081
think	-15.3112
▁indicati	-15.313
traders	-15.3163
small	-15.3165
friday	-15.3271
ears	-15.3289
fs	-15.3294
quake	-15.33
dentified	-15.3333
▁iv	-15.3344
alked	-15.3363
jor	-15.3427
head	-15.3454
ntends	-15.3517
turn	-15.3524
futures	-15.3537
office	-15.3555
bush	-15.3592
operating	-15.3617
stake	-15.3638
lot	-15.367
spokesman	-15.367
icate	-15.3673
▁es	-15.3675
enson	-15.3689
tries	-15.369
officer	-15.3713
▁trib	-15.3725
▁opposi	-15.3726
ain	-15.3727
dl	-15.3823
▁discussi	-15.3843
might	-15.3875
nding	-15.388
▁wen	-15.3957
unter	-15.3996
costs	-15.408
fy	-15.4098
▁develope	-15.4108
value	-15.4116
already	-15.4122
flat	-15.4155
september	-15.4157
▁qu	-15.4185
keep	-15.4221
look	-15.4239
dicates	-15.4331
agreement	-15.4358
ters	-15.436
gita	-15.4367
welling	-15.4368
firms	-15.4377
due	-15.4444
tyle	-15.4446
british	-15.4468
▁ore	-15.447
aus	-15.4495
rea	-15.4516
cash	-15.4536
har	-15.454
rating	-15.4565
loit	-15.4592
kee	-15.4608
